{
  "version": "1.0",
  "truncation": null,
  "padding": null,
  "added_tokens": [
    {
      "id": 0,
      "content": "<unk>",
      "single_word": false,
      "lstrip": false,
      "rstrip": false,
      "normalized": false,
      "special": true
    },
    {
      "id": 1,
      "content": "<s>",
      "single_word": false,
      "lstrip": false,
      "rstrip": false,
      "normalized": false,
      "special": true
    },
    {
      "id": 2,
      "content": "</s>",
      "single_word": false,
      "lstrip": false,
      "rstrip": false,
      "normalized": false,
      "special": true
    }
  ],
  "normalizer": null,
  "pre_tokenizer": {
    "type": "ByteLevel",
    "add_prefix_space": false,
    "trim_offsets": true,
    "use_regex": true
  },
  "post_processor": null,
  "decoder": {
    "type": "ByteLevel",
    "add_prefix_space": true,
    "trim_offsets": true,
    "use_regex": true
  },
  "model": {
    "type": "BPE",
    "dropout": null,
    "unk_token": null,
    "continuing_subword_prefix": null,
    "end_of_word_suffix": null,
    "fuse_unk": false,
    "byte_fallback": false,
    "ignore_merges": false,
    "vocab": {
      "<unk>": 0,
      "<s>": 1,
      "</s>": 2,
      "!": 3,
      "\"": 4,
      "#": 5,
      "$": 6,
      "%": 7,
      "&": 8,
      "'": 9,
      "(": 10,
      ")": 11,
      "*": 12,
      "+": 13,
      ",": 14,
      "-": 15,
      ".": 16,
      "/": 17,
      "0": 18,
      "1": 19,
      "2": 20,
      "3": 21,
      "4": 22,
      "5": 23,
      "6": 24,
      "7": 25,
      "8": 26,
      "9": 27,
      ":": 28,
      ";": 29,
      "<": 30,
      "=": 31,
      ">": 32,
      "?": 33,
      "@": 34,
      "A": 35,
      "B": 36,
      "C": 37,
      "D": 38,
      "E": 39,
      "F": 40,
      "G": 41,
      "H": 42,
      "I": 43,
      "J": 44,
      "K": 45,
      "L": 46,
      "M": 47,
      "N": 48,
      "O": 49,
      "P": 50,
      "Q": 51,
      "R": 52,
      "S": 53,
      "T": 54,
      "U": 55,
      "V": 56,
      "W": 57,
      "X": 58,
      "Y": 59,
      "Z": 60,
      "[": 61,
      "\\": 62,
      "]": 63,
      "^": 64,
      "_": 65,
      "`": 66,
      "a": 67,
      "b": 68,
      "c": 69,
      "d": 70,
      "e": 71,
      "f": 72,
      "g": 73,
      "h": 74,
      "i": 75,
      "j": 76,
      "k": 77,
      "l": 78,
      "m": 79,
      "n": 80,
      "o": 81,
      "p": 82,
      "q": 83,
      "r": 84,
      "s": 85,
      "t": 86,
      "u": 87,
      "v": 88,
      "w": 89,
      "x": 90,
      "y": 91,
      "z": 92,
      "{": 93,
      "|": 94,
      "}": 95,
      "~": 96,
      "¡": 97,
      "¢": 98,
      "£": 99,
      "¤": 100,
      "¥": 101,
      "¦": 102,
      "§": 103,
      "¨": 104,
      "©": 105,
      "ª": 106,
      "«": 107,
      "¬": 108,
      "®": 109,
      "¯": 110,
      "°": 111,
      "±": 112,
      "²": 113,
      "³": 114,
      "´": 115,
      "µ": 116,
      "¶": 117,
      "·": 118,
      "¸": 119,
      "¹": 120,
      "º": 121,
      "»": 122,
      "¼": 123,
      "½": 124,
      "¾": 125,
      "¿": 126,
      "À": 127,
      "Á": 128,
      "Â": 129,
      "Ã": 130,
      "Ä": 131,
      "Å": 132,
      "Æ": 133,
      "Ç": 134,
      "È": 135,
      "É": 136,
      "Ê": 137,
      "Ë": 138,
      "Ì": 139,
      "Í": 140,
      "Î": 141,
      "Ï": 142,
      "Ð": 143,
      "Ñ": 144,
      "Ò": 145,
      "Ó": 146,
      "Ô": 147,
      "Õ": 148,
      "Ö": 149,
      "×": 150,
      "Ø": 151,
      "Ù": 152,
      "Ú": 153,
      "Û": 154,
      "Ü": 155,
      "Ý": 156,
      "Þ": 157,
      "ß": 158,
      "à": 159,
      "á": 160,
      "â": 161,
      "ã": 162,
      "ä": 163,
      "å": 164,
      "æ": 165,
      "ç": 166,
      "è": 167,
      "é": 168,
      "ê": 169,
      "ë": 170,
      "ì": 171,
      "í": 172,
      "î": 173,
      "ï": 174,
      "ð": 175,
      "ñ": 176,
      "ò": 177,
      "ó": 178,
      "ô": 179,
      "õ": 180,
      "ö": 181,
      "÷": 182,
      "ø": 183,
      "ù": 184,
      "ú": 185,
      "û": 186,
      "ü": 187,
      "ý": 188,
      "þ": 189,
      "ÿ": 190,
      "Ā": 191,
      "ā": 192,
      "Ă": 193,
      "ă": 194,
      "Ą": 195,
      "ą": 196,
      "Ć": 197,
      "ć": 198,
      "Ĉ": 199,
      "ĉ": 200,
      "Ċ": 201,
      "ċ": 202,
      "Č": 203,
      "č": 204,
      "Ď": 205,
      "ď": 206,
      "Đ": 207,
      "đ": 208,
      "Ē": 209,
      "ē": 210,
      "Ĕ": 211,
      "ĕ": 212,
      "Ė": 213,
      "ė": 214,
      "Ę": 215,
      "ę": 216,
      "Ě": 217,
      "ě": 218,
      "Ĝ": 219,
      "ĝ": 220,
      "Ğ": 221,
      "ğ": 222,
      "Ġ": 223,
      "ġ": 224,
      "Ģ": 225,
      "ģ": 226,
      "Ĥ": 227,
      "ĥ": 228,
      "Ħ": 229,
      "ħ": 230,
      "Ĩ": 231,
      "ĩ": 232,
      "Ī": 233,
      "ī": 234,
      "Ĭ": 235,
      "ĭ": 236,
      "Į": 237,
      "į": 238,
      "İ": 239,
      "ı": 240,
      "Ĳ": 241,
      "ĳ": 242,
      "Ĵ": 243,
      "ĵ": 244,
      "Ķ": 245,
      "ķ": 246,
      "ĸ": 247,
      "Ĺ": 248,
      "ĺ": 249,
      "Ļ": 250,
      "ļ": 251,
      "Ľ": 252,
      "ľ": 253,
      "Ŀ": 254,
      "ŀ": 255,
      "Ł": 256,
      "ł": 257,
      "Ń": 258,
      "ï¼": 259,
      "ä¸": 260,
      "çļ": 261,
      "çļĦ": 262,
      "ï¼Į": 263,
      "ãĢ": 264,
      "ãĢĤ": 265,
      "nt": 266,
      "Ġ'": 267,
      "ä»": 268,
      "äº": 269,
      "åı": 270,
      "æľ": 271,
      "':": 272,
      "ä½": 273,
      "è¿": 274,
      "åħ": 275,
      "æĪ": 276,
      "åĴ": 277,
      "åĪ": 278,
      "çĶ": 279,
      "åĴĮ": 280,
      "ĠĠ": 281,
      "å®": 282,
      "åĬ": 283,
      "åľ": 284,
      "å¤": 285,
      "le": 286,
      "er": 287,
      "co": 288,
      "åĲ": 289,
      "è¯": 290,
      "Ġt": 291,
      "æĸ": 292,
      "æĺ": 293,
      "ro": 294,
      "ãĢģ": 295,
      "**": 296,
      "ç»": 297,
      "ä¸Ģ": 298,
      "ent": 299,
      "ä»¥": 300,
      "æķ": 301,
      "ï¼ļ": 302,
      "ĥ½": 303,
      "ãĢĤ\\": 304,
      "è®": 305,
      "åı¯": 306,
      "cont": 307,
      "Ġa": 308,
      "',": 309,
      "éĢ": 310,
      "ä¹": 311,
      "st": 312,
      "åº": 313,
      "æĺ¯": 314,
      "content": 315,
      "role": 316,
      "{'": 317,
      "èĥ½": 318,
      "åľ¨": 319,
      "åŃ": 320,
      "in": 321,
      "'}": 322,
      "çĶ¨": 323,
      "ä¸ª": 324,
      "he": 325,
      "åĮ": 326,
      "å°": 327,
      "ä¼": 328,
      "æĹ": 329,
      "è¡": 330,
      "å¸": 331,
      "è§": 332,
      "éĩ": 333,
      "æĿ": 334,
      "å¯": 335,
      "æĢ": 336,
      "as": 337,
      "ä¸Ń": 338,
      "åĩ": 339,
      "Ġ{'": 340,
      "çŃ": 341,
      "æľī": 342,
      "re": 343,
      "åĽ": 344,
      "ä¿": 345,
      "'},": 346,
      "si": 347,
      "äºº": 348,
      "è¿Ļ": 349,
      "åı¯ä»¥": 350,
      "¦Ĥ": 351,
      "å¼": 352,
      "çİ": 353,
      "us": 354,
      "on": 355,
      "at": 356,
      "åĨ": 357,
      "æĪĳ": 358,
      "è¦": 359,
      "å¦Ĥ": 360,
      "Ġ**": 361,
      "Ġthe": 362,
      "å¹": 363,
      "å·": 364,
      "è¦ģ": 365,
      "æķ°": 366,
      "æŀ": 367,
      "çī": 368,
      "é¢": 369,
      "çļĦæ": 370,
      "éĹ": 371,
      "ç§": 372,
      "ä¸º": 373,
      "sta": 374,
      "or": 375,
      "**ï¼ļ": 376,
      "èĢ": 377,
      "æĬ": 378,
      "çĲ": 379,
      "äºĨ": 380,
      "ä¾": 381,
      "æ³": 382,
      "æı": 383,
      "çĽ": 384,
      "ä¸į": 385,
      "å½": 386,
      "user": 387,
      "æī": 388,
      "å¾": 389,
      "assi": 390,
      "stant": 391,
      "assistant": 392,
      "æł": 393,
      "çŃī": 394,
      "ä»¬": 395,
      "çĶŁ": 396,
      "è¡Į": 397,
      "æĹ¶": 398,
      "æį": 399,
      "æİ": 400,
      "éĿ": 401,
      "äºİ": 402,
      "æıĲ": 403,
      "å¥": 404,
      "nd": 405,
      "æĿ¥": 406,
      "åį": 407,
      "\\\\": 408,
      "æŃ": 409,
      "èĩ": 410,
      "Ġs": 411,
      "çĲĨ": 412,
      "å¯¹": 413,
      "Ġi": 414,
      "æĸ¹": 415,
      "åĵ": 416,
      "æĢ§": 417,
      "æĽ": 418,
      "æĪĸ": 419,
      "ĠĠĠĠ": 420,
      "åŃ¦": 421,
      "éľ": 422,
      "äºĽ": 423,
      "éĢļ": 424,
      "ä¸Ģä¸ª": 425,
      "Ġp": 426,
      "Ġf": 427,
      "æĶ": 428,
      "æĭ": 429,
      "ä½ł": 430,
      "è¿ĩ": 431,
      "ä¿Ŀ": 432,
      "è´": 433,
      "æĪĲ": 434,
      "æĦ": 435,
      "éľĢ": 436,
      "åĮĸ": 437,
      "æĮ": 438,
      "al": 439,
      "ä½¿": 440,
      "Ġo": 441,
      "ä½ľ": 442,
      "æĻ": 443,
      "æĽ´": 444,
      "æĸĩ": 445,
      "åĪĨ": 446,
      "ä¼ļ": 447,
      "ç®": 448,
      "ä¸ĭ": 449,
      "ãĢĤ'},": 450,
      "æį®": 451,
      "åĪ°": 452,
      "es": 453,
      "æµ": 454,
      "å¿": 455,
      "åĳ": 456,
      "ing": 457,
      "åºĶ": 458,
      "åĬ¨": 459,
      "æĥ": 460,
      "Ġw": 461,
      "å·¥": 462,
      "åľ°": 463,
      "å®ļ": 464,
      "å±": 465,
      "an": 466,
      "åıĳ": 467,
      "ç¨": 468,
      "ç¡": 469,
      "è¾": 470,
      "ĠĠĠ": 471,
      "è¿Ľ": 472,
      "ar": 473,
      "éĻ": 474,
      "Ġc": 475,
      "æ³ķ": 476,
      "è§£": 477,
      "èĩª": 478,
      "ä½¿çĶ¨": 479,
      "Ġm": 480,
      "åŁ": 481,
      "æĤ": 482,
      "Ġd": 483,
      "ä½ĵ": 484,
      "it": 485,
      "âĢ": 486,
      "æ°": 487,
      "èµ": 488,
      "``": 489,
      "åĲĮ": 490,
      "[{'": 491,
      "ou": 492,
      "Ġb": 493,
      "Ġ=": 494,
      "éľĢè¦ģ": 495,
      "åħ³": 496,
      "åİ": 497,
      "å¥½": 498,
      "Ġto": 499,
      "ä¸İ": 500,
      "çİ°": 501,
      "å¤ļ": 502,
      "æ¯": 503,
      "æŀľ": 504,
      "ç¡®": 505,
      "é«": 506,
      "ä¸Ĭ": 507,
      "åı¯èĥ½": 508,
      "éĿ¢": 509,
      "ion": 510,
      "Ġof": 511,
      "å¤§": 512,
      "é«ĺ": 513,
      "åĬł": 514,
      "åĬĽ": 515,
      "åĩº": 516,
      "åº¦": 517,
      "ç¤": 518,
      "ed": 519,
      "é¢ĺ": 520,
      "ç¨ĭ": 521,
      "'}]": 522,
      "éĹ®": 523,
      "æĬĢ": 524,
      "##": 525,
      "ic": 526,
      "æ´": 527,
      "çī©": 528,
      "éģ": 529,
      "Ġin": 530,
      "æĤ¨": 531,
      "åĲĪ": 532,
      "ç±": 533,
      "é£": 534,
      "éĩı": 535,
      "å®ŀ": 536,
      "ç³": 537,
      "å¸¸": 538,
      "ç§į": 539,
      "ç«": 540,
      "çº": 541,
      "æķ°æį®": 542,
      "å¢": 543,
      "æ±": 544,
      "ï¼Ł": 545,
      "æĪĳä»¬": 546,
      "åģ": 547,
      "ä»ĸ": 548,
      "Ġe": 549,
      "è½": 550,
      "å»": 551,
      "å°Ĩ": 552,
      "Ġn": 553,
      "åĬ©": 554,
      "æľ¯": 555,
      "è®¡": 556,
      "åħ¶": 557,
      "çĦ": 558,
      "å¹¶": 559,
      "éĹ´": 560,
      "ct": 561,
      "æľº": 562,
      "Ġand": 563,
      "éĩį": 564,
      "ï¼ļ\\": 565,
      "ä¾Ľ": 566,
      "å»º": 567,
      "éĺ": 568,
      "èī": 569,
      "è¡¨": 570,
      "ç½": 571,
      "ç´": 572,
      "æ¸": 573,
      "ç³»": 574,
      "å¼ı": 575,
      "è°": 576,
      "éĢļè¿ĩ": 577,
      "ï¼ī": 578,
      "Ġ\\\\": 579,
      "ï¼Ī": 580,
      "ç±»": 581,
      "åĢ": 582,
      "æĸ°": 583,
      "çĦ¶": 584,
      "ä¸ļ": 585,
      "en": 586,
      "th": 587,
      "ä¹ł": 588,
      "æıĲä¾Ľ": 589,
      "æĻº": 590,
      "çĤ": 591,
      "ãĢĤ'}]": 592,
      "Ġco": 593,
      "æľĢ": 594,
      "Ł¥": 595,
      "è®¾": 596,
      "Ġre": 597,
      "åĪ¶": 598,
      "è¶": 599,
      "ä¾ĭ": 600,
      "å®ĥ": 601,
      "åĵģ": 602,
      "æĮģ": 603,
      "åĮħ": 604,
      "çİ¯": 605,
      "åŃĲ": 606,
      "æ²": 607,
      "çļĦç": 608,
      "æĻºèĥ½": 609,
      "èĤ": 610,
      "åħ¥": 611,
      "å¸®": 612,
      "æģ": 613,
      "ä¿¡": 614,
      "éĹ®é¢ĺ": 615,
      "um": 616,
      "ra": 617,
      "ri": 618,
      "çī¹": 619,
      "ä»£": 620,
      "åĽł": 621,
      "åĬ¡": 622,
      "èĢĮ": 623,
      "èĢħ": 624,
      "æľ¬": 625,
      "éĶ": 626,
      "æĦŁ": 627,
      "åħ¨": 628,
      "Ġis": 629,
      "æ¬": 630,
      "åħ·": 631,
      "ä¹Ł": 632,
      "Ġth": 633,
      "å±ķ": 634,
      "ï¼Ł'},": 635,
      "ä¹ĭ": 636,
      "Ġ-": 637,
      "çł": 638,
      "è¿Ľè¡Į": 639,
      "et": 640,
      "Ġy": 641,
      "åŀ": 642,
      "å½±": 643,
      "æĦı": 644,
      "Ġ1": 645,
      "æķĪ": 646,
      "ç®Ĺ": 647,
      "åĲİ": 648,
      "æĥħ": 649,
      "å®¶": 650,
      "åī": 651,
      "æ´»": 652,
      "ä¸ĢäºĽ": 653,
      "éļ": 654,
      "æĬĢæľ¯": 655,
      "ä»¶": 656,
      "Ġ\"": 657,
      "is": 658,
      "çĸ": 659,
      "åŃ¦ä¹ł": 660,
      "é¡": 661,
      "å¸®åĬ©": 662,
      "Ġh": 663,
      "ç»Ł": 664,
      "lo": 665,
      "çĿ": 666,
      "å¦Ĥæŀľ": 667,
      "éª": 668,
      "å°ı": 669,
      "è¯Ń": 670,
      "åĻ": 671,
      "ç»ı": 672,
      "çķ": 673,
      "çĤ¹": 674,
      "èĬ": 675,
      "è¯·": 676,
      "åĻ¨": 677,
      "çĽ®": 678,
      "çĽ¸": 679,
      "æĪ·": 680,
      "å¼Ģ": 681,
      "æ·": 682,
      "éĢī": 683,
      "è¿ĻäºĽ": 684,
      "mp": 685,
      "åŀĭ": 686,
      "ä»¥ä¸ĭ": 687,
      "æ±Ĥ": 688,
      "äº§": 689,
      "```": 690,
      "å½ĵ": 691,
      "åĪĽ": 692,
      "å¾Ĺ": 693,
      "éĢĤ": 694,
      "æģ¯": 695,
      "åŃĹ": 696,
      "ä»İ": 697,
      "é¦": 698,
      "åıĬ": 699,
      "åħ¬": 700,
      "åĨħ": 701,
      ":\\": 702,
      "éĽ": 703,
      "ut": 704,
      "ç»ĵ": 705,
      "å¿ĥ": 706,
      "åıĺ": 707,
      "ve": 708,
      "æ¨": 709,
      "Ġyou": 710,
      "âĢľ": 711,
      "ä¸»": 712,
      "å¤©": 713,
      "æº": 714,
      "âĢĿ": 715,
      "è·": 716,
      "éķ": 717,
      "ç¼": 718,
      "li": 719,
      "å¤Ħ": 720,
      "å¹³": 721,
      "æīĢ": 722,
      "çľ": 723,
      "å®ī": 724,
      "äººå·¥": 725,
      "ç©": 726,
      "åĨ³": 727,
      "de": 728,
      "åĽ½": 729,
      "ce": 730,
      "äº¤": 731,
      "åºĶçĶ¨": 732,
      "çĶµ": 733,
      "èī²": 734,
      "me": 735,
      "åıĸ": 736,
      "çĿĢ": 737,
      "ç¬": 738,
      "åĵį": 739,
      "ç¤¾": 740,
      "ä½ķ": 741,
      "äººå·¥æĻºèĥ½": 742,
      "æľŁ": 743,
      "æ¨¡": 744,
      "éħ": 745,
      "èģ": 746,
      "ä¹Ī": 747,
      "åĿ": 748,
      "éĥ½": 749,
      "æłĩ": 750,
      "å¢ĥ": 751,
      "èĻ": 752,
      "00": 753,
      ")\\": 754,
      "æĭ¬": 755,
      ".\\": 756,
      "éĥ": 757,
      "èµĦ": 758,
      "ç¡®ä¿Ŀ": 759,
      "åĮħæĭ¬": 760,
      "ul": 761,
      "æºĲ": 762,
      "è°ĥ": 763,
      "è¿Ļä¸ª": 764,
      "Ġ`": 765,
      "ä½Ĩ": 766,
      "ç¾": 767,
      "ur": 768,
      "éķ¿": 769,
      "ĠT": 770,
      "è´¨": 771,
      "äºĭ": 772,
      "ĠĠĠĠĠĠĠ": 773,
      "è¿ĺ": 774,
      "ä¸įåĲĮ": 775,
      "ch": 776,
      "ä¿¡æģ¯": 777,
      "Ġ2": 778,
      "æĺİ": 779,
      "éĥ¨": 780,
      "Ġfor": 781,
      "æŃ¤": 782,
      "å½±åĵį": 783,
      "ä¾ĭå¦Ĥ": 784,
      "ç´ł": 785,
      "ä»»": 786,
      "æİ¥": 787,
      "å°ĳ": 788,
      "åľº": 789,
      "æ°´": 790,
      "æ¯ı": 791,
      "ç³»ç»Ł": 792,
      "åĮ»": 793,
      "æĥ³": 794,
      "éĢīæĭ": 795,
      "éĢīæĭ©": 796,
      "ation": 797,
      "é£Ł": 798,
      "æľį": 799,
      "ç¤º": 800,
      "å¤Ł": 801,
      "æĹ¶éĹ´": 802,
      "çİ¯å¢ĥ": 803,
      "éĤ": 804,
      "æŃ¥": 805,
      "åĢ¼": 806,
      "æıĲé«ĺ": 807,
      "åıĳå±ķ": 808,
      "åŁº": 809,
      "è¯Ĩ": 810,
      "å¥½çļĦ": 811,
      "\\'": 812,
      "åĪ©": 813,
      "å¤ĸ": 814,
      "é£İ": 815,
      "åŁŁ": 816,
      "æ¡": 817,
      "ĠI": 818,
      "ge": 819,
      "æ¯Ķ": 820,
      "ate": 821,
      "çİĩ": 822,
      "åĲį": 823,
      "æķ´": 824,
      "ers": 825,
      "åīį": 826,
      "il": 827,
      "åŃĺ": 828,
      "è®®": 829,
      "æ¶": 830,
      "Ł³": 831,
      "é¢Ĩ": 832,
      "æ°Ķ": 833,
      "æĬ¤": 834,
      "ç®¡": 835,
      "æŃ£": 836,
      "å¯¼": 837,
      "åĪĹ": 838,
      "åģ¥": 839,
      "çŃĸ": 840,
      "éĩįè¦ģ": 841,
      "ãģ": 842,
      "å¤ĦçĲĨ": 843,
      "å¸Ĥ": 844,
      "æ³¨": 845,
      "###": 846,
      "çłģ": 847,
      "æµĭ": 848,
      "qu": 849,
      "ç»Ļ": 850,
      "éĿŀ": 851,
      "åĩı": 852,
      "æŀĲ": 853,
      "æĸ¹æ³ķ": 854,
      "æķĻ": 855,
      "åıĹ": 856,
      "æĹ¥": 857,
      "è¯ķ": 858,
      "ç»Ħ": 859,
      "çĥ": 860,
      "æł¹": 861,
      "Ġg": 862,
      "åĩĨ": 863,
      "ä½į": 864,
      "å¢ŀ": 865,
      "un": 866,
      "åĪ«": 867,
      "ç§ĳ": 868,
      "è¢": 869,
      "è®©": 870,
      "ä¼ĺ": 871,
      "å¤į": 872,
      "æŁ": 873,
      "èĢĥ": 874,
      "ç½ĳ": 875,
      "yth": 876,
      "çĸĹ": 877,
      "è¨": 878,
      "å¼º": 879,
      "ot": 880,
      "åĨĻ": 881,
      "èį": 882,
      "å·±": 883,
      "èĩªå·±": 884,
      "çĶ¨æĪ·": 885,
      "å¹´": 886,
      "è®¡ç®Ĺ": 887,
      "ython": 888,
      "ly": 889,
      "åĪĨæŀĲ": 890,
      "é¢Ħ": 891,
      "åºı": 892,
      "èĥ½å¤Ł": 893,
      "æŁ¥": 894,
      "åħĥ": 895,
      "æ»": 896,
      "ow": 897,
      "è¯¥": 898,
      "èĬĤ": 899,
      "se": 900,
      "ä¼ł": 901,
      "æŀĦ": 902,
      "å®¹": 903,
      "æµģ": 904,
      "æľª": 905,
      "çŁ¥": 906,
      "éªĮ": 907,
      "çĲĥ": 908,
      "Ġor": 909,
      "å®īåħ¨": 910,
      "åįķ": 911,
      "æł¼": 912,
      "åĸ": 913,
      "ç¾İ": 914,
      "éģĵ": 915,
      "è¿Ĳ": 916,
      "æł¹æį®": 917,
      "å¤ĩ": 918,
      "ä¸ŃçļĦ": 919,
      "åĽŀ": 920,
      "æ·±": 921,
      "ç«ł": 922,
      "é¢ĨåŁŁ": 923,
      "å¦Ĥä½ķ": 924,
      "è¿°": 925,
      "åº·": 926,
      "Ġpro": 927,
      "èº": 928,
      "éŁ³": 929,
      "æĹł": 930,
      "Ġthat": 931,
      "è§Ħ": 932,
      "è¢«": 933,
      "æł·": 934,
      "ĠA": 935,
      "å½¢": 936,
      "åķ": 937,
      "å§": 938,
      "ĠS": 939,
      "æľįåĬ¡": 940,
      "èº«": 941,
      "Ġ(": 942,
      "åĨµ": 943,
      "åģ¥åº·": 944,
      "éĢļå¸¸": 945,
      "æĢģ": 946,
      "æĸ¹å¼ı": 947,
      "æĸĩç«ł": 948,
      "èĲ": 949,
      "pe": 950,
      "æ®": 951,
      "è±": 952,
      "ä»ĸä»¬": 953,
      "çĹ": 954,
      "Ġbe": 955,
      "åĮº": 956,
      "è§Ĩ": 957,
      "è¾ĵ": 958,
      "è¨Ģ": 959,
      "åĲĮæĹ¶": 960,
      "Ġst": 961,
      "Ġcan": 962,
      "æĺ¯ä¸Ģ": 963,
      "çº¿": 964,
      "æĸŃ": 965,
      "æĶ¾": 966,
      "Ġv": 967,
      "ç®¡çĲĨ": 968,
      "Ġ+": 969,
      "èĥ": 970,
      "éĤ£": 971,
      "åıĤ": 972,
      "ith": 973,
      "åĬŁ": 974,
      "æĮĩ": 975,
      "Ġ3": 976,
      "å»ºè®®": 977,
      "æİ¨": 978,
      "å·¥ä½ľ": 979,
      "Ġas": 980,
      "åĳĺ": 981,
      "é¥": 982,
      "çĶŁæ´»": 983,
      "é¡¹": 984,
      "åıį": 985,
      "ĠC": 986,
      "å®ŀçİ°": 987,
      "æĶ¹": 988,
      "èµ·": 989,
      "æĢ»": 990,
      "æīĭ": 991,
      "```\\": 992,
      "æ£": 993,
      "æĺ¯ä¸Ģä¸ª": 994,
      "è§Ĥ": 995,
      "ç½®": 996,
      "æĻ¯": 997,
      "çģ": 998,
      "æī¾": 999,
      "ä»¥åıĬ": 1000,
      "éĩĮ": 1001,
      "éĽĨ": 1002,
      "ol": 1003,
      "è®º": 1004,
      "æĶ¯": 1005,
      "Ġit": 1006,
      "ä»£çłģ": 1007,
      "æĸĩåĮĸ": 1008,
      "ç¥": 1009,
      "el": 1010,
      "åĩ½": 1011,
      "ex": 1012,
      "ä»·": 1013,
      "å¾Ī": 1014,
      "çĭ": 1015,
      "åĩıå°ĳ": 1016,
      "ç¤¾ä¼ļ": 1017,
      "if": 1018,
      "ä»Ģ": 1019,
      "çĬ": 1020,
      "æ¬¡": 1021,
      "åĩ½æķ°": 1022,
      "ä¹Ĳ": 1023,
      "åĽ¾": 1024,
      "ä¹ī": 1025,
      "è¯´": 1026,
      "è®¾è®¡": 1027,
      "la": 1028,
      "éĿŀå¸¸": 1029,
      "ä»Ģä¹Ī": 1030,
      "æĸ¹éĿ¢": 1031,
      "ä¸ªäºº": 1032,
      "åĲĳ": 1033,
      "Ġan": 1034,
      "åİĨ": 1035,
      "åħĪ": 1036,
      "èĻĳ": 1037,
      "å¼ķ": 1038,
      "ç²": 1039,
      "gh": 1040,
      "é¦ĸ": 1041,
      "éĢŁ": 1042,
      "è£": 1043,
      "èĪ": 1044,
      "è¿ĩç¨ĭ": 1045,
      "æĸĻ": 1046,
      "ç»Ń": 1047,
      "çĲĨè§£": 1048,
      "id": 1049,
      "ver": 1050,
      "èĦ": 1051,
      "çĶ¨äºİ": 1052,
      "umb": 1053,
      "AI": 1054,
      "èİ": 1055,
      "ä¿ĿæĬ¤": 1056,
      "åĪĻ": 1057,
      "æ¸¸": 1058,
      "ç¬¦": 1059,
      "åħ¶ä»ĸ": 1060,
      "è§£åĨ³": 1061,
      "æĵ": 1062,
      "ç¯": 1063,
      "æĶ¶": 1064,
      "ment": 1065,
      "åĲ¦": 1066,
      "å®¢": 1067,
      "]\\": 1068,
      "ction": 1069,
      "åİŁ": 1070,
      "éĩĳ": 1071,
      "åħ³äºİ": 1072,
      "åħį": 1073,
      "éĢł": 1074,
      "éħį": 1075,
      "Ġ\\\\(": 1076,
      "å£": 1077,
      "èĩ´": 1078,
      ";\\": 1079,
      "Ġde": 1080,
      "éĻ©": 1081,
      "äººç±»": 1082,
      "ĠP": 1083,
      "åħ·ä½ĵ": 1084,
      "æľªæĿ¥": 1085,
      "ir": 1086,
      "çĶŁæĪĲ": 1087,
      "è¾¾": 1088,
      "ç©º": 1089,
      "ç¼ĸ": 1090,
      "ç»´": 1091,
      "åħ±": 1092,
      "Ġwith": 1093,
      "çľĭ": 1094,
      "ort": 1095,
      "ere": 1096,
      "Ġon": 1097,
      "ä¿ĿæĮģ": 1098,
      "èĤ²": 1099,
      "ad": 1100,
      "æ®µ": 1101,
      "ä¸¤": 1102,
      "éľĢæ±Ĥ": 1103,
      "é©": 1104,
      "æĽ´åĬł": 1105,
      "å®ĥä»¬": 1106,
      "ä»ħ": 1107,
      "è¯Ńè¨Ģ": 1108,
      "å®Į": 1109,
      "åĲĦ": 1110,
      "ç«ĭ": 1111,
      "è§Ĵ": 1112,
      "èĩªçĦ¶": 1113,
      "äºĨè§£": 1114,
      "Ġus": 1115,
      "æ¨¡åŀĭ": 1116,
      "è®¤": 1117,
      "æİ§": 1118,
      "çĻ": 1119,
      "Ġ$": 1120,
      "åħī": 1121,
      "çĽ´": 1122,
      "ä¸ĵ": 1123,
      "ab": 1124,
      "im": 1125,
      "Ġwh": 1126,
      "éĻħ": 1127,
      "çĶ±": 1128,
      "å§ĭ": 1129,
      "\\\\)": 1130,
      "çķĮ": 1131,
      "ä»¥ä¸ĭæĺ¯": 1132,
      "éĴ": 1133,
      "è¯Ħ": 1134,
      "è±¡": 1135,
      "æİĴ": 1136,
      "è¯į": 1137,
      "å¹¿": 1138,
      "èĭ": 1139,
      "æĢĿ": 1140,
      "åĳ³": 1141,
      "åı£": 1142,
      "æľºåĻ¨": 1143,
      "å¸¦": 1144,
      "æĪĺ": 1145,
      "ke": 1146,
      "æ¡Ī": 1147,
      "ç»Ĩ": 1148,
      "èĥ½åĬĽ": 1149,
      "éļı": 1150,
      "res": 1151,
      "çĪ": 1152,
      "å¿«": 1153,
      "ç¯ĩ": 1154,
      "èĢĥèĻĳ": 1155,
      "çĬ¶": 1156,
      "å°±": 1157,
      "Ġex": 1158,
      "Ġli": 1159,
      "æĸ½": 1160,
      "éĵ": 1161,
      "èµĦæºĲ": 1162,
      "åĩł": 1163,
      "èı": 1164,
      "ext": 1165,
      "ck": 1166,
      "åºĶè¯¥": 1167,
      "è½¬": 1168,
      "iv": 1169,
      "ç´¢": 1170,
      "ç®Ģ": 1171,
      "çĽ®æłĩ": 1172,
      "pp": 1173,
      "åĲ«": 1174,
      "åĮ»çĸĹ": 1175,
      "éĺŁ": 1176,
      "pt": 1177,
      "åķĨ": 1178,
      "è®°": 1179,
      "éĶ®": 1180,
      "Ġ|": 1181,
      "åĪĴ": 1182,
      "éģ¿": 1183,
      "Ġmo": 1184,
      "æķĻèĤ²": 1185,
      "ä½łçļĦ": 1186,
      "æ´»åĬ¨": 1187,
      "é»": 1188,
      "ue": 1189,
      "å¯¹äºİ": 1190,
      "ç§¯": 1191,
      "æ¼": 1192,
      "åİ»": 1193,
      "éĻĲ": 1194,
      "åĲĹ": 1195,
      "è¶³": 1196,
      "è¯Ŀ": 1197,
      "æĺ¯åĲ¦": 1198,
      "Ġare": 1199,
      "æ¸ħ": 1200,
      "è½¦": 1201,
      "Ġle": 1202,
      "æ»¡": 1203,
      "æķħ": 1204,
      "Ġ5": 1205,
      "åı¯ä»¥å¸®åĬ©": 1206,
      "åı¸": 1207,
      "çĹħ": 1208,
      "åģļ": 1209,
      "åĽ¢": 1210,
      "çķ¥": 1211,
      "ä¹ĭéĹ´": 1212,
      "ay": 1213,
      "è¯ģ": 1214,
      "åįĩ": 1215,
      "ç»ĥ": 1216,
      "Ġ4": 1217,
      "å·²": 1218,
      "æĶ¿": 1219,
      "èĮ": 1220,
      "åĬŁèĥ½": 1221,
      "åı¯èĥ½ä¼ļ": 1222,
      "ä¸ī": 1223,
      "æĪĸèĢħ": 1224,
      "åĳĬ": 1225,
      "äº§åĵģ": 1226,
      "éģ¿åħį": 1227,
      "åĵª": 1228,
      "rint": 1229,
      "æ£Ģ": 1230,
      "æŀģ": 1231,
      "è®¸": 1232,
      "èİ·": 1233,
      "åĽłæŃ¤": 1234,
      "æĥħåĨµ": 1235,
      "æĶ¯æĮģ": 1236,
      "æµ·": 1237,
      "æĹħ": 1238,
      "ma": 1239,
      "åĨħå®¹": 1240,
      "å¾ĭ": 1241,
      "ä¸ĸ": 1242,
      "æķĪçİĩ": 1243,
      "æľĽ": 1244,
      "ä¸įä»ħ": 1245,
      "åºĵ": 1246,
      "è¾ĥ": 1247,
      "äºĴ": 1248,
      "çī¹å®ļ": 1249,
      "åĥ": 1250,
      "è£ħ": 1251,
      "ght": 1252,
      "èĩªå·±çļĦ": 1253,
      "Ġne": 1254,
      "åıª": 1255,
      "ç¦": 1256,
      "ä¸Ķ": 1257,
      "è®Ń": 1258,
      "èģĶ": 1259,
      "åı¥": 1260,
      "Ġint": 1261,
      "Ġnumb": 1262,
      "ĠH": 1263,
      "çİ¯ä¿Ŀ": 1264,
      "å¸Ĥåľº": 1265,
      "äº«": 1266,
      "ä¼ĺåĮĸ": 1267,
      "ä¸»è¦ģ": 1268,
      "çħ": 1269,
      "om": 1270,
      "æĿ¡": 1271,
      "åħ¬åı¸": 1272,
      "ä»»åĬ¡": 1273,
      "įä½ľ": 1274,
      "ä½İ": 1275,
      "æ²¡": 1276,
      "éĩĩ": 1277,
      "åħĥç´ł": 1278,
      "Ġ{": 1279,
      "--": 1280,
      "Ġse": 1281,
      "å¢ŀåĬł": 1282,
      "æĽ´å¥½": 1283,
      "æĺĵ": 1284,
      "è·¯": 1285,
      "æĢ§åĴĮ": 1286,
      "æĺŁ": 1287,
      "éª¤": 1288,
      "çłĶ": 1289,
      "è´¹": 1290,
      "è¯»": 1291,
      "Ġal": 1292,
      "äººä»¬": 1293,
      "åĥı": 1294,
      "ĠThe": 1295,
      "ind": 1296,
      "æĿĤ": 1297,
      "åĳ½": 1298,
      "æ²»": 1299,
      "ç»ĵæŀľ": 1300,
      "ãĢĭ": 1301,
      "ãĢĬ": 1302,
      "Ġcon": 1303,
      "åı²": 1304,
      "ame": 1305,
      "ç®Ĺæ³ķ": 1306,
      "å¯¼èĩ´": 1307,
      "åŁİ": 1308,
      "è¶£": 1309,
      "è´¨éĩı": 1310,
      "éĶĻ": 1311,
      "è¯¯": 1312,
      "åıĺåĮĸ": 1313,
      "æį¢": 1314,
      "urn": 1315,
      "mple": 1316,
      "èıľ": 1317,
      "ä¾¿": 1318,
      "æľīæķĪ": 1319,
      "æİ¢": 1320,
      "è¿Ļç§į": 1321,
      "åĽłä¸º": 1322,
      "åħ³éĶ®": 1323,
      "è°ĥæķ´": 1324,
      "è¶Ĭ": 1325,
      "em": 1326,
      "è½»": 1327,
      "ãĤ": 1328,
      "æĽ´å¤ļ": 1329,
      "ç¿": 1330,
      "åį³": 1331,
      "Ġhe": 1332,
      "çļĦæĥ": 1333,
      "Ġwe": 1334,
      "Ġ0": 1335,
      "10": 1336,
      "æĿĥ": 1337,
      "ult": 1338,
      "æ¸©": 1339,
      "av": 1340,
      "è§ģ": 1341,
      "ring": 1342,
      "ç»ľ": 1343,
      "æĸĩä»¶": 1344,
      "æĿĲ": 1345,
      "å·¥åħ·": 1346,
      "åĸľ": 1347,
      "æ²¡æľī": 1348,
      "æ³¨æĦı": 1349,
      "çĮ": 1350,
      "age": 1351,
      "ç½ĳç»ľ": 1352,
      "éĻ¤": 1353,
      "æĽ´å¥½åľ°": 1354,
      "æĮģç»Ń": 1355,
      "ç©¶": 1356,
      "åı°": 1357,
      "æıı": 1358,
      "ä¸ŃåĽ½": 1359,
      "çĽ¸åħ³": 1360,
      "åĪ©çĶ¨": 1361,
      "å¯Ĩ": 1362,
      "æĵįä½ľ": 1363,
      "èĩ³": 1364,
      "çŃĸçķ¥": 1365,
      "()": 1366,
      "æ¬¢": 1367,
      "Ġl": 1368,
      "ä½łåı¯ä»¥": 1369,
      "çīĩ": 1370,
      "å¤įæĿĤ": 1371,
      "åĽ¢éĺŁ": 1372,
      "ile": 1373,
      "am": 1374,
      "èĲ¥": 1375,
      "åħħ": 1376,
      "é¦ĸåħĪ": 1377,
      "æŁĲ": 1378,
      "é£İéĻ©": 1379,
      "ess": 1380,
      "æīĢæľī": 1381,
      "æ¶Ī": 1382,
      "èĩªåĬ¨": 1383,
      "ç§ĳæĬĢ": 1384,
      "Ġret": 1385,
      "åĶ": 1386,
      "ĠM": 1387,
      "çŁ": 1388,
      "è¡Įä¸º": 1389,
      "ub": 1390,
      "ata": 1391,
      "ä¸ºäºĨ": 1392,
      "Ġma": 1393,
      "å¼Ģåıĳ": 1394,
      "ç¢": 1395,
      "ç²¾": 1396,
      "Ġ\\": 1397,
      "ity": 1398,
      "rom": 1399,
      "åĪĽå»º": 1400,
      "èĬ±": 1401,
      "èĳ": 1402,
      "ç¥ŀ": 1403,
      "ä¹¦": 1404,
      "å¸Į": 1405,
      "Ġif": 1406,
      "åĲ¸": 1407,
      "ĠF": 1408,
      "\"}": 1409,
      "è¯¢": 1410,
      "ä¼°": 1411,
      "æīĵ": 1412,
      "æİ§åĪ¶": 1413,
      "æŃ¥éª¤": 1414,
      "é¸": 1415,
      "ld": 1416,
      "æķħäºĭ": 1417,
      "çĦ¶åĲİ": 1418,
      "unction": 1419,
      "æĤ¨çļĦ": 1420,
      "éĢĤåĲĪ": 1421,
      "æĸĩæľ¬": 1422,
      "æĬķ": 1423,
      "æĲ": 1424,
      "åİĭ": 1425,
      "'s": 1426,
      "ç¨ĭåºı": 1427,
      "å°Ŀ": 1428,
      "ï¼ģ": 1429,
      "çŃĶ": 1430,
      "ä»İèĢĮ": 1431,
      "é¡¹çĽ®": 1432,
      "åİĨåı²": 1433,
      "Ġreturn": 1434,
      "çļĦæĬ": 1435,
      "å¸ĥ": 1436,
      "åħ³ç³»": 1437,
      "ä¸įåĲĮçļĦ": 1438,
      "od": 1439,
      "åı·": 1440,
      "åĬ¿": 1441,
      "ä½ľä¸º": 1442,
      "ç±»åŀĭ": 1443,
      "åĩĨç¡®": 1444,
      "èīº": 1445,
      "Ġ#": 1446,
      "20": 1447,
      "Ġch": 1448,
      "åŃĹç¬¦": 1449,
      "çĥŃ": 1450,
      "ä¸ĸçķĮ": 1451,
      "Ġby": 1452,
      "æĸ°çļĦ": 1453,
      "åĪĹè¡¨": 1454,
      "æľĪ": 1455,
      "ase": 1456,
      "çĭ¬": 1457,
      "ç¬¬": 1458,
      "æĪı": 1459,
      "nåľ¨": 1460,
      "çĽĳ": 1461,
      "é¥®": 1462,
      "est": 1463,
      "éĩĬ": 1464,
      "å¼Ģå§ĭ": 1465,
      "ĳæĪĺ": 1466,
      "ç»ĵæŀĦ": 1467,
      "çļĦå½±åĵį": 1468,
      "è®¾å¤ĩ": 1469,
      "æĳ": 1470,
      "æĺ¯ä¸Ģç§į": 1471,
      "Python": 1472,
      "Ġha": 1473,
      "å¤ª": 1474,
      "ci": 1475,
      "çĪ±": 1476,
      "èŀ": 1477,
      "éĤ£ä¹Ī": 1478,
      "è¾ĵåħ¥": 1479,
      "å¤±": 1480,
      "ä¿ĥ": 1481,
      "ure": 1482,
      "æ¤": 1483,
      "éĺ²": 1484,
      "ä¸įæĸŃ": 1485,
      "ĠB": 1486,
      "ä»½": 1487,
      "çļĦæĺ¯": 1488,
      "for": 1489,
      "ĠD": 1490,
      "np": 1491,
      "è¯ĨåĪ«": 1492,
      "åı¯ä»¥éĢļè¿ĩ": 1493,
      "åĤ": 1494,
      "éĶĢ": 1495,
      "ä¸ĵä¸ļ": 1496,
      "rac": 1497,
      "å¯»": 1498,
      "å®ŀéĻħ": 1499,
      "åħ»": 1500,
      "æļ": 1501,
      "å½ķ": 1502,
      "éŁ³ä¹Ĳ": 1503,
      "æī¾åĪ°": 1504,
      "èģĮ": 1505,
      "å¼Ĥ": 1506,
      "åĽ´": 1507,
      "çļĦæĥħ": 1508,
      "æµİ": 1509,
      "å¯Į": 1510,
      "åŁİå¸Ĥ": 1511,
      "å¸¦æĿ¥": 1512,
      "çº¦": 1513,
      "è§ī": 1514,
      "æħ": 1515,
      "å°Ŀè¯ķ": 1516,
      "up": 1517,
      "åħ´": 1518,
      "æķ°åŃĹ": 1519,
      "éĥ¨åĪĨ": 1520,
      "ç»ıæµİ": 1521,
      "ä½ĵéªĮ": 1522,
      "ine": 1523,
      "å¸Ī": 1524,
      "æııè¿°": 1525,
      "åĮħåĲ«": 1526,
      "è¯Ħä¼°": 1527,
      "\\\\[": 1528,
      "å½ĵçĦ¶": 1529,
      "python": 1530,
      "å·²ç»ı": 1531,
      "åŃĺåľ¨": 1532,
      "èŀį": 1533,
      "éļ¾": 1534,
      "è´Ń": 1535,
      "ĠE": 1536,
      "nT": 1537,
      "èįĲ": 1538,
      "Ġr": 1539,
      "åĭ": 1540,
      "his": 1541,
      "ĠĠĠĠĠĠĠĠĠĠĠ": 1542,
      "èĤī": 1543,
      "å¿µ": 1544,
      "æľīåĬ©": 1545,
      "Ġme": 1546,
      "}{": 1547,
      "å¸ĮæľĽ": 1548,
      "ive": 1549,
      "}\\": 1550,
      "åĽłç´ł": 1551,
      "ä¼ģ": 1552,
      "int": 1553,
      "çłĶç©¶": 1554,
      "æ£ĢæŁ¥": 1555,
      "æĬ¥": 1556,
      "é¤": 1557,
      "åħ·æľī": 1558,
      "æľīåĬ©äºİ": 1559,
      "low": 1560,
      "å¿ħ": 1561,
      "ä¸¤ä¸ª": 1562,
      "Ġthis": 1563,
      "æĢ§èĥ½": 1564,
      "é¢Ħæµĭ": 1565,
      "Ġnumber": 1566,
      "èĭ±": 1567,
      "çĻ½": 1568,
      "act": 1569,
      "Ġsi": 1570,
      "ord": 1571,
      "æ¯Ķå¦Ĥ": 1572,
      "ªæĸ½": 1573,
      "frac": 1574,
      "éĺ³": 1575,
      "ĠW": 1576,
      "å®¢æĪ·": 1577,
      "Ġnot": 1578,
      "Ġ[": 1579,
      "ä¿®": 1580,
      "äº§çĶŁ": 1581,
      "åħĭ": 1582,
      "è®Ńç»ĥ": 1583,
      "ter": 1584,
      "ä¸Ģç¯ĩ": 1585,
      "èº«ä½ĵ": 1586,
      "ä¸Ģä¸ĭ": 1587,
      "è¿ĲåĬ¨": 1588,
      "åŃ¦çĶŁ": 1589,
      "æŁĵ": 1590,
      "éĹ¨": 1591,
      "åĬ±": 1592,
      "ä»¥ä¸ĭæĺ¯ä¸ĢäºĽ": 1593,
      "Ġfunction": 1594,
      "æĺ¾": 1595,
      "æŃ¤å¤ĸ": 1596,
      "åıĭ": 1597,
      "æ¯ıä¸ª": 1598,
      "å»ºç«ĭ": 1599,
      "è¡¨è¾¾": 1600,
      "æ³Ľ": 1601,
      "§è¡Į": 1602,
      "Ġ<": 1603,
      "è®¸å¤ļ": 1604,
      "å¡": 1605,
      "è®¡åĪĴ": 1606,
      "éĶĻè¯¯": 1607,
      "åĨį": 1608,
      "æĸ¹æ¡Ī": 1609,
      "å¤´": 1610,
      "åĲĪä½ľ": 1611,
      "åĳ¨": 1612,
      "çļĦåıĳå±ķ": 1613,
      "Ġpo": 1614,
      "çħ§": 1615,
      "è¿Ļæł·": 1616,
      "è¿ĳ": 1617,
      "ä¿ĥè¿Ľ": 1618,
      "é¤Ĳ": 1619,
      "Ġso": 1620,
      "æİ¨èįĲ": 1621,
      "åħ¨çĲĥ": 1622,
      "æ¿": 1623,
      "è¯Ĺ": 1624,
      "able": 1625,
      "æĴ": 1626,
      "çº§": 1627,
      "äºĮ": 1628,
      "ä¼ģä¸ļ": 1629,
      "vi": 1630,
      "ç»ĻæĪĳ": 1631,
      "åĪĽæĸ°": 1632,
      "åĲĦç§į": 1633,
      "Ġ{\\": 1634,
      "ant": 1635,
      "ç§°": 1636,
      "**:": 1637,
      "éĻį": 1638,
      "Ġ6": 1639,
      "çª": 1640,
      "æ¼Ķ": 1641,
      "å®ĮæĪĲ": 1642,
      "çŁ¥è¯Ĩ": 1643,
      "åĿĹ": 1644,
      "ä¸Ģç§į": 1645,
      "our": 1646,
      "ect": 1647,
      "ç§ĳåŃ¦": 1648,
      "æµĭè¯ķ": 1649,
      "åĲ¬": 1650,
      "ng": 1651,
      "æ¸¸æĪı": 1652,
      "çļĦåºĶçĶ¨": 1653,
      "èħ": 1654,
      "åĨ³çŃĸ": 1655,
      "çļĦæĸĩç«ł": 1656,
      "ĠR": 1657,
      "æŃĮ": 1658,
      "å°½": 1659,
      "éļıçĿĢ": 1660,
      "é¢ĳ": 1661,
      "æ¿Ģ": 1662,
      "cri": 1663,
      "ç«Ļ": 1664,
      "å¹¿æ³Ľ": 1665,
      "ence": 1666,
      "åĢĻ": 1667,
      "å±Ĥ": 1668,
      "æĪĳä»¬åı¯ä»¥": 1669,
      "è®¨": 1670,
      "ä¼Ĺ": 1671,
      "å¾ģ": 1672,
      "åģĩ": 1673,
      "çĶµå½±": 1674,
      "Ġar": 1675,
      "sion": 1676,
      "æ¬¾": 1677,
      "ig": 1678,
      "å¥¹": 1679,
      "å¹³åı°": 1680,
      "ï¼Ľ": 1681,
      "ä¹ĭä¸Ģ": 1682,
      "æī§è¡Į": 1683,
      "ï¼Į\\": 1684,
      "çĽĬ": 1685,
      "ach": 1686,
      "ĠL": 1687,
      "Ġfrom": 1688,
      "ä¹ĭéĹ´çļĦ": 1689,
      "åĿĩ": 1690,
      "è¾¹": 1691,
      "ä»·åĢ¼": 1692,
      "è¿ŀ": 1693,
      "è¿ľ": 1694,
      "èĽ": 1695,
      "ä»»ä½ķ": 1696,
      "):\\": 1697,
      "ä¸»é¢ĺ": 1698,
      "Ġyour": 1699,
      "æĮī": 1700,
      "ä¸²": 1701,
      "åĤ¨": 1702,
      "æĪĳä»¬çļĦ": 1703,
      "æıĲåįĩ": 1704,
      "ä½Ĩæĺ¯": 1705,
      "ç±³": 1706,
      "åıĤä¸İ": 1707,
      "è½¯": 1708,
      "åŁºäºİ": 1709,
      "æ°ĳ": 1710,
      "å®ļä¹ī": 1711,
      "èīºæľ¯": 1712,
      "ies": 1713,
      "é¼": 1714,
      "ãĥ": 1715,
      "put": 1716,
      "è¯ī": 1717,
      "æ¢": 1718,
      "ass": 1719,
      "Ġres": 1720,
      "ç®Ģåįķ": 1721,
      "æľºåĻ¨åŃ¦ä¹ł": 1722,
      "æĮĳæĪĺ": 1723,
      "ä¼łç»Ł": 1724,
      "èĥĮ": 1725,
      "__": 1726,
      "ç¤¾äº¤": 1727,
      "Ġspe": 1728,
      "ich": 1729,
      "æİªæĸ½": 1730,
      "è´Ł": 1731,
      "ef": 1732,
      "è¡¡": 1733,
      "ç¦»": 1734,
      "åŃ£": 1735,
      "åĪ¶å®ļ": 1736,
      "è¾ĵåĩº": 1737,
      "\"}]": 1738,
      "næĢ»": 1739,
      "çīĮ": 1740,
      "ä½ľçĶ¨": 1741,
      "åįı": 1742,
      "cl": 1743,
      "åħ¶ä¸Ń": 1744,
      "åĸľæ¬¢": 1745,
      "åı¤": 1746,
      "ill": 1747,
      "oo": 1748,
      "\",": 1749,
      "è§£éĩĬ": 1750,
      "å·§": 1751,
      "å£°": 1752,
      "ç¤ºä¾ĭ": 1753,
      "å·®": 1754,
      "åıĳçİ°": 1755,
      "åĮ»çĶŁ": 1756,
      "å¾Ģ": 1757,
      "è¡Įä¸ļ": 1758,
      "ice": 1759,
      "(\"": 1760,
      "Ġqu": 1761,
      "ist": 1762,
      "è¯¦": 1763,
      "Ġlo": 1764,
      "åĩłä¸ª": 1765,
      "çİ°åľ¨": 1766,
      "ime": 1767,
      "Ġ/": 1768,
      "çļĦäºº": 1769,
      "èĮĥ": 1770,
      "art": 1771,
      "æĭŁ": 1772,
      "è¿ĩç¨ĭä¸Ń": 1773,
      "åºŃ": 1774,
      "å¾ª": 1775,
      "ud": 1776,
      "form": 1777,
      "æĿ¾": 1778,
      "éļĲ": 1779,
      "åĵªäºĽ": 1780,
      "åĪ°äºĨ": 1781,
      "å¤ı": 1782,
      "çĶ»": 1783,
      "å¿«éĢŁ": 1784,
      "çļĦéĹ®é¢ĺ": 1785,
      "ĠN": 1786,
      "çĽ´æİ¥": 1787,
      "æ²»çĸĹ": 1788,
      "èĥ½æºĲ": 1789,
      "æĬķèµĦ": 1790,
      "çļĦæİ": 1791,
      "è´£": 1792,
      "åŁºæľ¬": 1793,
      "æĤ¨åı¯ä»¥": 1794,
      "Ġhave": 1795,
      "è¾ĳ": 1796,
      "æĥħæĦŁ": 1797,
      "æŃ£ç¡®": 1798,
      "åĨĻä¸Ģç¯ĩ": 1799,
      "æīį": 1800,
      "per": 1801,
      "du": 1802,
      "mport": 1803,
      "fer": 1804,
      "Ġdo": 1805,
      "ther": 1806,
      "äº¤éĢļ": 1807,
      "è°¢": 1808,
      "åĳ¢": 1809,
      "åŃĹç¬¦ä¸²": 1810,
      "ang": 1811,
      "éģĩ": 1812,
      "æľĢåĲİ": 1813,
      "çľŁ": 1814,
      "çļĦæķ°æį®": 1815,
      "çº¢": 1816,
      "æĪĲæľ¬": 1817,
      "æĪĳæĥ³": 1818,
      "cript": 1819,
      "out": 1820,
      "**\\": 1821,
      "æ²¹": 1822,
      "ç§ģ": 1823,
      ".'}]": 1824,
      "text": 1825,
      "èĳĹ": 1826,
      "å±±": 1827,
      "ç¡®å®ļ": 1828,
      "çļĦéĩįè¦ģ": 1829,
      "çļĦæĦ": 1830,
      "å¦Ĥæŀľä½ł": 1831,
      "è¡¨ç¤º": 1832,
      "ific": 1833,
      "è¯¦ç»Ĩ": 1834,
      "å¿ĥçĲĨ": 1835,
      "å®ļæľŁ": 1836,
      "so": 1837,
      "ç»Ī": 1838,
      "èį¯": 1839,
      "è®¤ä¸º": 1840,
      "åŁ¹": 1841,
      "å¢ŀå¼º": 1842,
      "èĽĭ": 1843,
      "éĩĩåıĸ": 1844,
      "unt": 1845,
      "ip": 1846,
      "å¨": 1847,
      "æ·»": 1848,
      "å®¶åºŃ": 1849,
      "åĪ¶ä½ľ": 1850,
      "ç¼ĸç¨ĭ": 1851,
      "åŃ©": 1852,
      "æĪĲä¸º": 1853,
      "åĸĦ": 1854,
      "ç»ĩ": 1855,
      "are": 1856,
      "ä¹°": 1857,
      "ble": 1858,
      "çı": 1859,
      "alue": 1860,
      "è¦ģæ±Ĥ": 1861,
      "æĿĲæĸĻ": 1862,
      "iz": 1863,
      "ä¸°": 1864,
      "ight": 1865,
      "å¥³": 1866,
      "Ġx": 1867,
      "Ġcont": 1868,
      "Ġsu": 1869,
      "Ġad": 1870,
      "ç¿»": 1871,
      "è§Ĵèī²": 1872,
      "åħ±åĲĮ": 1873,
      "åı¯èĥ½éľĢè¦ģ": 1874,
      "æıĲä¾ĽäºĨ": 1875,
      "Ġk": 1876,
      "ans": 1877,
      "æİ¢ç´¢": 1878,
      "ain": 1879,
      "æ³ķå¾ĭ": 1880,
      "Ġ\\'": 1881,
      "å¤ļä¸ª": 1882,
      "èī¯": 1883,
      "æıĲåıĸ": 1884,
      "ary": 1885,
      "æĸ¯": 1886,
      "\"\\": 1887,
      "å¤§çļĦ": 1888,
      "å²": 1889,
      "ç§¯æŀģ": 1890,
      "äººå·¥æĻºèĥ½æĬĢæľ¯": 1891,
      "å¾·": 1892,
      "Ġen": 1893,
      "ä»¤": 1894,
      "æĿ¡ä»¶": 1895,
      "è¥": 1896,
      "äºī": 1897,
      "èĢģ": 1898,
      "è¯Ĭ": 1899,
      "éĵ¾": 1900,
      "ä¼¼": 1901,
      "ath": 1902,
      "ample": 1903,
      "åĪĨç±»": 1904,
      "à¸": 1905,
      "éĺħ": 1906,
      "è¥¿": 1907,
      "åĪĽéĢł": 1908,
      "ava": 1909,
      "æķĪæŀľ": 1910,
      "ç§»": 1911,
      "å¾®": 1912,
      "åħ³æ³¨": 1913,
      "è®¾ç½®": 1914,
      "çĶŁçī©": 1915,
      "ç¨³": 1916,
      "è¯ĳ": 1917,
      "åĬłåħ¥": 1918,
      "æ¶ī": 1919,
      "ä»ĭ": 1920,
      "é¥®é£Ł": 1921,
      "çİ°ä»£": 1922,
      "åĩ»": 1923,
      "ç«¯": 1924,
      "Ġwhich": 1925,
      "çĶŁäº§": 1926,
      "åĪĩ": 1927,
      "ĠG": 1928,
      "èİ·åıĸ": 1929,
      "Ġsh": 1930,
      "é²": 1931,
      "åİĭåĬĽ": 1932,
      "éĢĤåºĶ": 1933,
      "åª": 1934,
      "åıĤæķ°": 1935,
      "imes": 1936,
      "åľºæĻ¯": 1937,
      "åĩºçİ°": 1938,
      "é¦Ī": 1939,
      "ĠThis": 1940,
      "ore": 1941,
      "ry": 1942,
      "å¤§éĩı": 1943,
      ");\\": 1944,
      "åħ´è¶£": 1945,
      "éĩįè¦ģçļĦ": 1946,
      "¾çĹħ": 1947,
      "çļĦæ°": 1948,
      "è®¿": 1949,
      "ac": 1950,
      "çģµ": 1951,
      "000": 1952,
      "çŁŃ": 1953,
      "åŃĺåĤ¨": 1954,
      "åħ¸": 1955,
      "ap": 1956,
      "åĳĬè¯ī": 1957,
      "¡æŁĵ": 1958,
      "åĩĨå¤ĩ": 1959,
      "åŁºç¡": 1960,
      "åŁºç¡Ģ": 1961,
      "ä¸°å¯Į": 1962,
      "ial": 1963,
      "å±ŀ": 1964,
      "é¦Ļ": 1965,
      "Ġneed": 1966,
      "ag": 1967,
      "é«ĺæķĪ": 1968,
      "åıįé¦Ī": 1969,
      "äººçļĦ": 1970,
      ">\\": 1971,
      "æ¶īåıĬ": 1972,
      "å¦ĤæŀľæĤ¨": 1973,
      "ust": 1974,
      "é¢Ŀ": 1975,
      "åĶ®": 1976,
      "ĠJ": 1977,
      "rt": 1978,
      "è®¡ç®Ĺæľº": 1979,
      "çļĦæł": 1980,
      "ould": 1981,
      "å¼ł": 1982,
      "åĵģçīĮ": 1983,
      "çļĦæĶ": 1984,
      "nprint": 1985,
      "Ġcom": 1986,
      "æ½": 1987,
      "å®³": 1988,
      "è½¯ä»¶": 1989,
      "ä½įç½®": 1990,
      "é¼ĵ": 1991,
      "Ġ10": 1992,
      "åĪĿ": 1993,
      "æľºä¼ļ": 1994,
      "Ġat": 1995,
      "ŁéĢļ": 1996,
      "åº¦åĴĮ": 1997,
      "ä¸ĬçļĦ": 1998,
      "æĹłæ³ķ": 1999,
      "ä¸įæĺ¯": 2000,
      "çļĦæĬĢ": 2001,
      "lic": 2002,
      "æ·»åĬł": 2003,
      "åıĹåĪ°": 2004,
      "çļĦæĮ": 2005,
      "å¤©æ°Ķ": 2006,
      "und": 2007,
      "åªĴ": 2008,
      "æĪ¿": 2009,
      "æĬĢèĥ½": 2010,
      "èĲ½": 2011,
      "Ġ*": 2012,
      "ä¸ªæĢ§": 2013,
      "å¾ĹåĪ°": 2014,
      "ep": 2015,
      "èĥĮæĻ¯": 2016,
      "ï¼īï¼Į": 2017,
      "sit": 2018,
      "çģ«": 2019,
      "çļĦæŃ": 2020,
      "éĥ½æĺ¯": 2021,
      "åĬ¨çī©": 2022,
      "æ¦Ĥ": 2023,
      "Ġmore": 2024,
      "ĠO": 2025,
      "ç»Ħç»ĩ": 2026,
      "çŃīçŃī": 2027,
      "æŁĲäºĽ": 2028,
      "ç¨³å®ļ": 2029,
      "è¡¨çİ°": 2030,
      "çĭĹ": 2031,
      "å¹²": 2032,
      "çĸ¾çĹħ": 2033,
      "éĿĻ": 2034,
      "è¿Ķ": 2035,
      "æ¨¡å¼ı": 2036,
      "æ¤į": 2037,
      "å¾Īå¤ļ": 2038,
      "åı¦": 2039,
      "ical": 2040,
      "**ï¼ļ\\": 2041,
      "ä»·æł¼": 2042,
      "é£Łçī©": 2043,
      "\\\\]\\": 2044,
      "å¾Ħ": 2045,
      "çī¹å¾ģ": 2046,
      "è¯ĬæĸŃ": 2047,
      "ire": 2048,
      "çīĪ": 2049,
      "è®²": 2050,
      "æĹħè¡Į": 2051,
      "néĢļè¿ĩ": 2052,
      "çļĦæī": 2053,
      "è½¬æį¢": 2054,
      "å¾ħ": 2055,
      "æĽ´å¤ļçļĦ": 2056,
      "Ġ8": 2057,
      "çĬ¶æĢģ": 2058,
      "åľ°çĲĥ": 2059,
      "ç´§": 2060,
      "Ġlist": 2061,
      "ni": 2062,
      "èİ·å¾Ĺ": 2063,
      "æŀĹ": 2064,
      "æĶ¿çŃĸ": 2065,
      "æ±¡æŁĵ": 2066,
      "ray": 2067,
      "äº¤æµģ": 2068,
      "ç»¿": 2069,
      "åį°": 2070,
      "é»ĳ": 2071,
      "les": 2072,
      "äºĳ": 2073,
      "æŃ¢": 2074,
      "è½½": 2075,
      "Ġprint": 2076,
      "èµĽ": 2077,
      "Ġj": 2078,
      "è¿½": 2079,
      "ç³ĸ": 2080,
      "ĠÐ": 2081,
      "Ġun": 2082,
      "è®°å½ķ": 2083,
      "æĪĲåĬŁ": 2084,
      "å¹¶ä¸Ķ": 2085,
      "è¶ħ": 2086,
      "é¢ľ": 2087,
      "Ġ7": 2088,
      "è®¿éĹ®": 2089,
      "?'},": 2090,
      "ations": 2091,
      "çªģ": 2092,
      "è¿Ĳè¡Į": 2093,
      "cess": 2094,
      ",\\": 2095,
      "ç½ĳç«Ļ": 2096,
      "ä½¿å¾Ĺ": 2097,
      "è¿ĶåĽŀ": 2098,
      "lp": 2099,
      "æłĳ": 2100,
      "åĦ": 2101,
      "ä¾Ŀ": 2102,
      "çĨ": 2103,
      "é¼ĵåĬ±": 2104,
      "æķ°ç»Ħ": 2105,
      "ç»´æĬ¤": 2106,
      "æ·±åº¦": 2107,
      "æĿ¥è¯´": 2108,
      "åªĴä½ĵ": 2109,
      "ä¸¥": 2110,
      "ard": 2111,
      "ft": 2112,
      "ä½ľåĵģ": 2113,
      "åºľ": 2114,
      "æĪĳä»¬éľĢè¦ģ": 2115,
      "ç¾¤": 2116,
      "Ġcomp": 2117,
      "Ġfind": 2118,
      "å¤ļç§į": 2119,
      "æĤ£": 2120,
      "æ»¡è¶³": 2121,
      "næĢ»ä¹ĭ": 2122,
      "é¾": 2123,
      "op": 2124,
      "è¯·éĹ®": 2125,
      "å±ħ": 2126,
      "å¦": 2127,
      "åĽĽ": 2128,
      "Ġcal": 2129,
      "æŀ¶": 2130,
      "éĢĲ": 2131,
      "åł": 2132,
      "ç¼ĵ": 2133,
      "Ġper": 2134,
      "éģµ": 2135,
      "çĶµåŃĲ": 2136,
      "ä¸ªæĢ§åĮĸ": 2137,
      "çļĦä¸Ģ": 2138,
      "çŁ¥éģĵ": 2139,
      "éĺħè¯»": 2140,
      "éļĲç§ģ": 2141,
      "çļĦåľ°": 2142,
      "ä¸½": 2143,
      "è¯¾": 2144,
      "åĪĨäº«": 2145,
      "Ġdata": 2146,
      "å¥ĩ": 2147,
      "åĽ¾åĥı": 2148,
      "éħĴ": 2149,
      "Ġspec": 2150,
      "è´¢": 2151,
      "æİĴåºı": 2152,
      "æķ°éĩı": 2153,
      "çİ©": 2154,
      "ç¼º": 2155,
      "è·µ": 2156,
      "ork": 2157,
      "è´Ńä¹°": 2158,
      "æĽ²": 2159,
      "åįĹ": 2160,
      "çĶŁæĢģ": 2161,
      "æĽ´æĸ°": 2162,
      "and": 2163,
      "ange": 2164,
      "åı¥åŃĲ": 2165,
      "éĩĳèŀį": 2166,
      "èģĶç³»": 2167,
      "èģĮä¸ļ": 2168,
      "å£«": 2169,
      "çļĦä¿¡æģ¯": 2170,
      "åŃ©åŃĲ": 2171,
      "æłĩåĩĨ": 2172,
      "å®ŀè·µ": 2173,
      "æķ°åŃ¦": 2174,
      "åģı": 2175,
      "åĪ»": 2176,
      "è¶ĭ": 2177,
      "å®¤": 2178,
      "å°Ķ": 2179,
      "äºĭä»¶": 2180,
      "eg": 2181,
      "å°Ĭ": 2182,
      "ç»į": 2183,
      "é¢ľèī²": 2184,
      "lement": 2185,
      "å¸¸è§ģ": 2186,
      "one": 2187,
      "çļĦæµ": 2188,
      "ä¸Ģèµ·": 2189,
      "ä»ĸä»¬çļĦ": 2190,
      "name": 2191,
      "ä»ĭç»į": 2192,
      "cul": 2193,
      "åĽŃ": 2194,
      "æĶ¿åºľ": 2195,
      "ç¿»è¯ĳ": 2196,
      "é£ŀ": 2197,
      "nI": 2198,
      "èĩªæĪĳ": 2199,
      "æ´ģ": 2200,
      "å±Ģ": 2201,
      "çļĦæĸ¹æ³ķ": 2202,
      "ak": 2203,
      "æĶ¹åıĺ": 2204,
      "ated": 2205,
      "ä¸ºæĤ¨": 2206,
      "åĽ½å®¶": 2207,
      "Ġeach": 2208,
      "Ġhelp": 2209,
      "åĽŀçŃĶ": 2210,
      "æĭī": 2211,
      "Ġhas": 2212,
      "ç»ª": 2213,
      "èŃ": 2214,
      "åı¯ä»¥ä½¿çĶ¨": 2215,
      "åĪ¤": 2216,
      "æľĭ": 2217,
      "times": 2218,
      "é¸¡": 2219,
      "çĭ¬çī¹": 2220,
      "è¶ĭåĬ¿": 2221,
      "ç»¼": 2222,
      "åģĩè®¾": 2223,
      "Ġuse": 2224,
      "12": 2225,
      "ä¹Łæĺ¯": 2226,
      "æĪĲåĳĺ": 2227,
      "åı¯æĮģç»Ń": 2228,
      "gn": 2229,
      "é£İæł¼": 2230,
      ".\"}]": 2231,
      "åĳĺå·¥": 2232,
      "å±ķç¤º": 2233,
      "æĢ§çļĦ": 2234,
      "éĢŁåº¦": 2235,
      "éļľ": 2236,
      "åĳĬè¯īæĪĳ": 2237,
      "çļĦæĻ": 2238,
      "ĠçļĦ": 2239,
      "æĹı": 2240,
      "Ġlike": 2241,
      "çļĦæ²": 2242,
      "å¹³è¡¡": 2243,
      "ä¸´": 2244,
      "ions": 2245,
      "ä»Ĭ": 2246,
      "io": 2247,
      "ew": 2248,
      "æĶ¶éĽĨ": 2249,
      "ç«ŀ": 2250,
      "æĹħæ¸¸": 2251,
      "der": 2252,
      "çī¹åĪ«": 2253,
      "æĺ¯åľ¨": 2254,
      "ä»¥ä¸Ĭ": 2255,
      "çĥ¤": 2256,
      "äºĶ": 2257,
      "æŁ¥è¯¢": 2258,
      "é©¬": 2259,
      "åĽ°": 2260,
      "åıĳçĶŁ": 2261,
      "åĲ¸å¼ķ": 2262,
      "æĻ®": 2263,
      "æľĭåıĭ": 2264,
      "æĺ¯ä»Ģä¹Ī": 2265,
      "è¿ŀæİ¥": 2266,
      "å®ļçļĦ": 2267,
      "Ġla": 2268,
      "å¯»æī¾": 2269,
      "æĺİç¡®": 2270,
      "æľºåĻ¨äºº": 2271,
      "æŀĦå»º": 2272,
      "ode": 2273,
      "æĭ¥": 2274,
      "åľ¨çº¿": 2275,
      "æ¯į": 2276,
      "æ¯Ķè¾ĥ": 2277,
      "erm": 2278,
      "ä½ı": 2279,
      "è¿ĻéĩĮ": 2280,
      "èĮĥåĽ´": 2281,
      "æĳĦ": 2282,
      "ll": 2283,
      "å¿Ĺ": 2284,
      "ack": 2285,
      "åľ°åĮº": 2286,
      "å®īè£ħ": 2287,
      "Ġro": 2288,
      "æ³¢": 2289,
      "Ġab": 2290,
      "ph": 2291,
      "æĦŁåĪ°": 2292,
      "éĨ": 2293,
      "ĠIf": 2294,
      "æĬĢå·§": 2295,
      "æ¹": 2296,
      ".'},": 2297,
      "Ġsta": 2298,
      "çļĦæ¸": 2299,
      "è¡ĮåĬ¨": 2300,
      "æ·±åħ¥": 2301,
      "50": 2302,
      "Ġac": 2303,
      "å¤ªéĺ³": 2304,
      "ndef": 2305,
      "å½Ĵ": 2306,
      "tal": 2307,
      "ç¥¨": 2308,
      "éĥ½æľī": 2309,
      "ä¸ĢæŃ¥": 2310,
      "å½ĵåīį": 2311,
      "èĻļ": 2312,
      "åį¡": 2313,
      "éªĮè¯ģ": 2314,
      "ä»ĺ": 2315,
      "ç¤¾åĮº": 2316,
      "çĶŁåĳ½": 2317,
      "æµģç¨ĭ": 2318,
      "ä¸Ģæ¬¡": 2319,
      "Ġhow": 2320,
      "é²ľ": 2321,
      "æķ£": 2322,
      "é»Ħ": 2323,
      "çĳ": 2324,
      "åĬĽåĴĮ": 2325,
      "Ġapp": 2326,
      "Ð¾": 2327,
      "åĨĻä¸Ģç¯ĩåħ³äºİ": 2328,
      "å½¢å¼ı": 2329,
      "èª": 2330,
      "æĿ¿": 2331,
      "ç»ıéªĮ": 2332,
      "çĦ¶èĢĮ": 2333,
      "ä»¥ç¡®ä¿Ŀ": 2334,
      "ä¸Ĭè¿°": 2335,
      "Ġwill": 2336,
      "éĢ»": 2337,
      "èĦĳ": 2338,
      "ces": 2339,
      "æĢİ": 2340,
      "æĤ£èĢħ": 2341,
      "vide": 2342,
      "è¿ĺæľī": 2343,
      "éĻįä½İ": 2344,
      "åĮĹ": 2345,
      "rit": 2346,
      "é±": 2347,
      "è®¨è®º": 2348,
      "gra": 2349,
      "irst": 2350,
      "éĢ»è¾ĳ": 2351,
      "åĦ¿": 2352,
      "ĠPython": 2353,
      "Ġtotal": 2354,
      "ff": 2355,
      "é©¶": 2356,
      "ç©ºéĹ´": 2357,
      "Ġman": 2358,
      "éĻĲåĪ¶": 2359,
      "é±¼": 2360,
      "åºĶå¯¹": 2361,
      "åĬª": 2362,
      "åħ·ä½ĵçļĦ": 2363,
      "æĴŃ": 2364,
      "äºĨä¸Ģä¸ª": 2365,
      "ä¾ĭåŃĲ": 2366,
      "çļĦæĥħåĨµ": 2367,
      "Â·": 2368,
      "ĠU": 2369,
      "è§ĦåĪĴ": 2370,
      "ä»¥ä¾¿": 2371,
      "éĢı": 2372,
      "å®Ŀ": 2373,
      "ä¹Łåı¯ä»¥": 2374,
      "ear": 2375,
      "ert": 2376,
      "æĪĳåı¯ä»¥": 2377,
      "åĳ¼": 2378,
      "æīįèĥ½": 2379,
      "æĢĿèĢĥ": 2380,
      "å¤ľ": 2381,
      "åĲĪçĲĨ": 2382,
      "å½¢æĪĲ": 2383,
      "æī¿": 2384,
      "å¥¶": 2385,
      "ľç´¢": 2386,
      "èįī": 2387,
      "è¿Ļç¯ĩ": 2388,
      "åģļåĩº": 2389,
      "ï¼Ł\\": 2390,
      "Ġprovide": 2391,
      "æ½ľ": 2392,
      "QL": 2393,
      "çĮ«": 2394,
      "èĻ½": 2395,
      "Ġspecific": 2396,
      "ru": 2397,
      "Ġusing": 2398,
      "é¡µ": 2399,
      "è¿Ļæĺ¯": 2400,
      "æķ°æį®åºĵ": 2401,
      "çĶŁæĪĲä¸Ģä¸ª": 2402,
      "æĥ¯": 2403,
      "Ġ9": 2404,
      "ates": 2405,
      "åĴĸ": 2406,
      "è§ĦåĪĻ": 2407,
      "æľĢç»Ī": 2408,
      "Ġout": 2409,
      "æ¸Ĳ": 2410,
      "éĶĢåĶ®": 2411,
      "å½©": 2412,
      "åı¶": 2413,
      "æĥ³è¦ģ": 2414,
      "æ°´å¹³": 2415,
      "å½ĵçĦ¶åı¯ä»¥": 2416,
      "çī¹å®ļçļĦ": 2417,
      "è§£åĨ³æĸ¹æ¡Ī": 2418,
      "ns": 2419,
      "æĹ¥å¸¸": 2420,
      "åįİ": 2421,
      "ä¸ĭéĿ¢": 2422,
      "åĪĽå»ºä¸Ģä¸ª": 2423,
      "äºļ": 2424,
      "åİŁåĽł": 2425,
      "è¡Ģ": 2426,
      "å¤ļæł·": 2427,
      "å¿ħè¦ģ": 2428,
      "ĠHow": 2429,
      "å¯¹è¯Ŀ": 2430,
      "èĶ": 2431,
      "èĻ½çĦ¶": 2432,
      "ç¼ĸåĨĻ": 2433,
      "æ´ĭ": 2434,
      "log": 2435,
      "åĴ¨": 2436,
      "åħħæ»¡": 2437,
      "nS": 2438,
      "æľīåħ³": 2439,
      "PI": 2440,
      "åºĹ": 2441,
      "è´£ä»»": 2442,
      "åĴ¨è¯¢": 2443,
      "éĴŁ": 2444,
      "çīĽ": 2445,
      "hen": 2446,
      "åĲĪéĢĤ": 2447,
      "çļ®": 2448,
      "Ġcode": 2449,
      "list": 2450,
      "åĨľ": 2451,
      "å°Ħ": 2452,
      "éĢģ": 2453,
      "ä¹łæĥ¯": 2454,
      "os": 2455,
      "åľŁ": 2456,
      "åĿļ": 2457,
      "çŃĳ": 2458,
      "æľºåĪ¶": 2459,
      "è¯¾ç¨ĭ": 2460,
      "åĨ²": 2461,
      "å®¡": 2462,
      "iven": 2463,
      "è¿ĺæĺ¯": 2464,
      "å°Ĭéĩį": 2465,
      "æ²ŁéĢļ": 2466,
      "ĥåľ": 2467,
      "SS": 2468,
      "åŀĥåľ": 2469,
      "åŀĥåľ¾": 2470,
      "å½ĵåľ°": 2471,
      "ict": 2472,
      "è¿Ļä¸Ģ": 2473,
      "ï¼ī\\": 2474,
      "Ġany": 2475,
      "åī§": 2476,
      "çĶ±äºİ": 2477,
      "çī©è´¨": 2478,
      "ree": 2479,
      "æĦıè¯Ĩ": 2480,
      "æ¯ıä¸ªäºº": 2481,
      "Ġresult": 2482,
      "åıĺéĩı": 2483,
      "åķ¡": 2484,
      "Ġstring": 2485,
      "çļĦç¾": 2486,
      "æŃ£åľ¨": 2487,
      "èĴ": 2488,
      "æ¶Īè´¹": 2489,
      "ç²ī": 2490,
      "Ġequ": 2491,
      "çĹĩ": 2492,
      "çĦ¦": 2493,
      "å¾ªçİ¯": 2494,
      "AIæĬĢæľ¯": 2495,
      "å¼ºè°ĥ": 2496,
      "åĽ½éĻħ": 2497,
      "Ġbut": 2498,
      "èµ·æĿ¥": 2499,
      "å»ºçŃĳ": 2500,
      "ä»£è¡¨": 2501,
      "Ġcl": 2502,
      "èĵ": 2503,
      "çļĦæ³": 2504,
      "è·Ŀ": 2505,
      "æļĸ": 2506,
      "é©¾": 2507,
      "ject": 2508,
      "åįķè¯į": 2509,
      "Ġnum": 2510,
      "()`": 2511,
      "Ġ//": 2512,
      "å¯¹è±¡": 2513,
      "éĴĪ": 2514,
      "åĬłå¼º": 2515,
      "get": 2516,
      "ç»ĵåĲĪ": 2517,
      "æĹ¥æľŁ": 2518,
      "èĦļ": 2519,
      "æĥħåĨµä¸ĭ": 2520,
      "å¯»æ±Ĥ": 2521,
      "åĴĸåķ¡": 2522,
      "Ðµ": 2523,
      "æĦıåĳ³": 2524,
      "Ġadd": 2525,
      "çļĦæ¯": 2526,
      "æĸ¹åĲĳ": 2527,
      "Ġte": 2528,
      "Ġä½¿çĶ¨": 2529,
      "çľł": 2530,
      "çĵ": 2531,
      "ç¤¾äº¤åªĴä½ĵ": 2532,
      "çŃīæĸ¹éĿ¢": 2533,
      "åĲĥ": 2534,
      "ener": 2535,
      "yst": 2536,
      "mat": 2537,
      "æīĢä»¥": 2538,
      "èĩªåĬ¨åĮĸ": 2539,
      "Ġexp": 2540,
      "æĸĩç«łä¸Ń": 2541,
      "Ġ20": 2542,
      "Ġcre": 2543,
      "èĪŀ": 2544,
      "Ġtr": 2545,
      "æķ°æį®çļĦ": 2546,
      "æĮīçħ§": 2547,
      "æĶ¹åĸĦ": 2548,
      "âĢĿï¼Į": 2549,
      "åĲįç§°": 2550,
      "ä½łèĥ½": 2551,
      "Ġnew": 2552,
      "com": 2553,
      "éŃ": 2554,
      "æİ¨åĬ¨": 2555,
      "åķĨåĵģ": 2556,
      "Ġused": 2557,
      "è±Ĩ": 2558,
      "æĲľç´¢": 2559,
      "all": 2560,
      "æ°ĶåĢĻ": 2561,
      "è¿ĽæŃ¥": 2562,
      "Ġexample": 2563,
      "æĦıåĳ³çĿĢ": 2564,
      "te": 2565,
      "æĺ¥": 2566,
      "æ¤įçī©": 2567,
      "ä½³": 2568,
      "æĽ¿": 2569,
      "ally": 2570,
      "ç¬¦åĲĪ": 2571,
      "Ġ}\\": 2572,
      "ĠIt": 2573,
      "Ġcol": 2574,
      "èį¯çī©": 2575,
      "å¤§å°ı": 2576,
      "ä¼¤": 2577,
      "åĮ»åŃ¦": 2578,
      "ory": 2579,
      "ç«ŀäºī": 2580,
      "Ġnumbers": 2581,
      "çĩ": 2582,
      "äº¬": 2583,
      "èĩªçĦ¶è¯Ńè¨Ģ": 2584,
      "æįŁ": 2585,
      "åľ¨åĮ»çĸĹ": 2586,
      "Ġ\\\\]\\": 2587,
      "éĿ¢å¯¹": 2588,
      "ä¸¾": 2589,
      "Ġtw": 2590,
      "çĸ«": 2591,
      "æĪĳçļĦ": 2592,
      "æī©": 2593,
      "The": 2594,
      "con": 2595,
      "æĶ¹è¿Ľ": 2596,
      "çĮ®": 2597,
      "ems": 2598,
      "Ġall": 2599,
      "æ¡£": 2600,
      "ç¦ı": 2601,
      "å®ĺ": 2602,
      "åĬªåĬĽ": 2603,
      "å·´": 2604,
      "åıįåºĶ": 2605,
      "è¯ŃéŁ³": 2606,
      "çŁ³": 2607,
      "æľºæŀĦ": 2608,
      "\")\\": 2609,
      "ç»ĥä¹ł": 2610,
      "ä¸ľ": 2611,
      "åıĪ": 2612,
      "æĿ¥è¶Ĭ": 2613,
      "èĪª": 2614,
      "è¶ĬæĿ¥è¶Ĭ": 2615,
      "åĪĽä½ľ": 2616,
      "erv": 2617,
      "ents": 2618,
      "åĲ§": 2619,
      "éģĵå¾·": 2620,
      "ç§ĭ": 2621,
      "éĩĩçĶ¨": 2622,
      "èµ°": 2623,
      "æĻļ": 2624,
      "èĹ": 2625,
      "numb": 2626,
      "æľīä»Ģä¹Ī": 2627,
      "----": 2628,
      "éº": 2629,
      "åıĺå¾Ĺ": 2630,
      "ä¹ĺ": 2631,
      "äºĴåĬ¨": 2632,
      "ç®ĢåįķçļĦ": 2633,
      "ç¤¼": 2634,
      "éķ¿æľŁ": 2635,
      "èĤ¡": 2636,
      "ance": 2637,
      "ĠSt": 2638,
      "èĲ¥åħ»": 2639,
      "çļĦç¾İ": 2640,
      "åıĮ": 2641,
      "ĠĠĠĠĠĠĠĠ": 2642,
      "æ±½": 2643,
      "é¡¾": 2644,
      "####": 2645,
      "éĤ®": 2646,
      "§è§Ĩ": 2647,
      "æıĲä¾ĽæĽ´": 2648,
      "æł¸": 2649,
      "æĪĲéķ¿": 2650,
      "ç»§": 2651,
      "çļĦæĦı": 2652,
      "æ·±åº¦åŃ¦ä¹ł": 2653,
      "åŁ¹è®Ń": 2654,
      "ä»¥ä¸ĭåĩłä¸ª": 2655,
      "num": 2656,
      "å¯Ł": 2657,
      "ä¸įèĥ½": 2658,
      "éħįç½®": 2659,
      "æ©": 2660,
      "éĢĴ": 2661,
      "æľīæīĢ": 2662,
      "æĬĬ": 2663,
      "own": 2664,
      "å°Ĩä¼ļ": 2665,
      "çķĻ": 2666,
      "St": 2667,
      "çĲĨè®º": 2668,
      "ç»Ļåĩº": 2669,
      "Ġtheir": 2670,
      "äº¤æĺĵ": 2671,
      "Ġra": 2672,
      "æľĢå¤§": 2673,
      "é©¾é©¶": 2674,
      "æĶ¾æĿ¾": 2675,
      "Ġincl": 2676,
      "éĽ¨": 2677,
      "å¤©çļĦ": 2678,
      "ä¼¦": 2679,
      "è¶³å¤Ł": 2680,
      "cur": 2681,
      "èģļ": 2682,
      "æµª": 2683,
      "key": 2684,
      "é¡º": 2685,
      "Ġvalue": 2686,
      "æĭ¥æľī": 2687,
      "åĨ·": 2688,
      "çĽĸ": 2689,
      "åĬĽéĩı": 2690,
      "äºĨä¸Ģ": 2691,
      "sq": 2692,
      "Ġset": 2693,
      "çļĦçĶŁæ´»": 2694,
      "æ°§": 2695,
      "æ¡Ĩ": 2696,
      "æķĪçİĩåĴĮ": 2697,
      "è´§": 2698,
      "ä¸įä¼ļ": 2699,
      "èĪĴ": 2700,
      "éĺ¶": 2701,
      "å¨ģ": 2702,
      "ks": 2703,
      "æİ¥åıĹ": 2704,
      "Java": 2705,
      "å®Ī": 2706,
      "åĲĮæĹ¶ä¹Ł": 2707,
      "nce": 2708,
      "èĶ¬": 2709,
      "ç³»åĪĹ": 2710,
      "æĹ©": 2711,
      "100": 2712,
      "Ġdef": 2713,
      "ition": 2714,
      "çļĦåħ³éĶ®": 2715,
      "Ġ==": 2716,
      "heck": 2717,
      "æľīè¶£": 2718,
      "ç§ĺ": 2719,
      "é£Łåĵģ": 2720,
      "åįģ": 2721,
      "ast": 2722,
      "..": 2723,
      "åĲ¯": 2724,
      "åĨ³å®ļ": 2725,
      "éķ¿åº¦": 2726,
      "äººåĳĺ": 2727,
      "Ġ|\\": 2728,
      "åĲİçļĦ": 2729,
      "Ġsum": 2730,
      "äº«åıĹ": 2731,
      "åı¯èĥ½çļĦ": 2732,
      "15": 2733,
      "åĪĨéħį": 2734,
      "å¡ĳ": 2735,
      "Ġup": 2736,
      "30": 2737,
      "we": 2738,
      "Ġcalcul": 2739,
      "åı¯ä»¥åľ¨": 2740,
      "ss": 2741,
      "¡çľł": 2742,
      "æħ¢": 2743,
      "Ġvar": 2744,
      "Ġchar": 2745,
      "è§¦": 2746,
      "ÑĤ": 2747,
      "Ġtime": 2748,
      "æĥħç»ª": 2749,
      "çĬ¶åĨµ": 2750,
      "åĨ°": 2751,
      "ail": 2752,
      "çİ°å®ŀ": 2753,
      "æĺ¾ç¤º": 2754,
      "ues": 2755,
      "çŃ¾": 2756,
      "çī¹çĤ¹": 2757,
      "æľĢè¿ĳ": 2758,
      "èĻļæĭŁ": 2759,
      "),": 2760,
      "è¿Ļåı¯èĥ½": 2761,
      "æķ´æķ°": 2762,
      "èµĸ": 2763,
      "éĩįå¤į": 2764,
      "èĶ¬èıľ": 2765,
      "çļĦæĹ¶éĹ´": 2766,
      "çł´": 2767,
      "éĢĤå½ĵ": 2768,
      "çī©çĲĨ": 2769,
      "ä¼ĳ": 2770,
      "è¯ĹæŃĮ": 2771,
      "Ġdet": 2772,
      "çļĦå·¥ä½ľ": 2773,
      "19": 2774,
      "æ¥": 2775,
      "åħģ": 2776,
      "çļĦæĬĢæľ¯": 2777,
      "å¹³åĿĩ": 2778,
      "Ġty": 2779,
      "æ¦Ĥå¿µ": 2780,
      "ç©¿": 2781,
      "éĢłæĪĲ": 2782,
      "ä¸Ńå¿ĥ": 2783,
      "Ġdif": 2784,
      "Ġmight": 2785,
      "æķ´ä¸ª": 2786,
      "çĽĳæİ§": 2787,
      "åĪĽæĦı": 2788,
      "ä¸Ģæ®µ": 2789,
      "èľ": 2790,
      "ä¸ĩ": 2791,
      "åĢĭ": 2792,
      "lay": 2793,
      "çļĦå»ºè®®": 2794,
      "Ġmat": 2795,
      "Ð°": 2796,
      "Ġimport": 2797,
      "åŃ¦ä¹łåĴĮ": 2798,
      "å¸®æĪĳ": 2799,
      "åĮĸçļĦ": 2800,
      "éģį": 2801,
      "Ġåľ¨": 2802,
      "åħģè®¸": 2803,
      "çļĦæı": 2804,
      "æ¸ħæĻ": 2805,
      "æĸĩæ¡£": 2806,
      "ç¹": 2807,
      "ĠV": 2808,
      "word": 2809,
      "è§Ĩé¢ĳ": 2810,
      "éģĩåĪ°": 2811,
      "ä¿®æĶ¹": 2812,
      "è§Ĩè§ī": 2813,
      "ä¼´": 2814,
      "åĳ½ä»¤": 2815,
      "çĽĺ": 2816,
      "èģĶç½ĳ": 2817,
      "å°¤": 2818,
      "éĹ»": 2819,
      "å®ĩ": 2820,
      "ob": 2821,
      "ä»į": 2822,
      "æŃ§è§Ĩ": 2823,
      "å¿Ĩ": 2824,
      "ong": 2825,
      "gram": 2826,
      "æ··": 2827,
      "è¿İ": 2828,
      "string": 2829,
      "ever": 2830,
      "æĢ¥": 2831,
      "éĵ¶": 2832,
      "Ġtwo": 2833,
      "æĭħ": 2834,
      "åĨħéĥ¨": 2835,
      "çĭ¬çī¹çļĦ": 2836,
      "()\\": 2837,
      "æıĲåĩº": 2838,
      "åºķ": 2839,
      "Ġelement": 2840,
      "çĨŁ": 2841,
      "èĩªçĦ¶è¯Ńè¨Ģå¤ĦçĲĨ": 2842,
      "æľīä¸Ģä¸ª": 2843,
      "ä¾Ŀèµĸ": 2844,
      "to": 2845,
      "è½¬æį¢ä¸º": 2846,
      "è¡£": 2847,
      "Ġother": 2848,
      "æĹłè®º": 2849,
      "åĪĨéĴŁ": 2850,
      "éĢĶ": 2851,
      "éģĹ": 2852,
      "éħ¸": 2853,
      "å·®å¼Ĥ": 2854,
      "ash": 2855,
      "count": 2856,
      "æĿİ": 2857,
      "èģĬ": 2858,
      "è¿Ľä¸ĢæŃ¥": 2859,
      "è¸": 2860,
      "éĹ®é¢ĺçļĦ": 2861,
      "nf": 2862,
      "è¿ĺåı¯ä»¥": 2863,
      "nimport": 2864,
      "Ġdis": 2865,
      "ä¸īä¸ª": 2866,
      "Ġpart": 2867,
      "äº®": 2868,
      "Ġpre": 2869,
      "Ġev": 2870,
      "ie": 2871,
      "æ´Ĺ": 2872,
      "æ¸©åº¦": 2873,
      "Ġwould": 2874,
      "ç¡¬": 2875,
      "ĠåĴĮ": 2876,
      "Ġsp": 2877,
      "Ġsome": 2878,
      "æ±½è½¦": 2879,
      "ä»ĸçļĦ": 2880,
      "åĳ¼åĲ¸": 2881,
      "èĲ¥éĶĢ": 2882,
      "æķı": 2883,
      "nds": 2884,
      "ror": 2885,
      "äº²": 2886,
      "Ġfirst": 2887,
      "åıĬæĹ¶": 2888,
      "éĿł": 2889,
      "king": 2890,
      "æľªæĿ¥çļĦ": 2891,
      "ä¸įåı¯": 2892,
      "è§ĤçĤ¹": 2893,
      "åľĨ": 2894,
      "å¼Ĥå¸¸": 2895,
      "nThe": 2896,
      "Ġfe": 2897,
      "Ġone": 2898,
      "èĮ¶": 2899,
      "è·Ŀç¦»": 2900,
      "Ġwas": 2901,
      "ĠY": 2902,
      "åĬŀ": 2903,
      "å°ıè¯´": 2904,
      "éĩİ": 2905,
      "arn": 2906,
      "èĩªçĶ±": 2907,
      "çļĦçĥ": 2908,
      "æĬĢæľ¯çļĦ": 2909,
      "éĿ¢ä¸´": 2910,
      "vers": 2911,
      "æĢĿç»´": 2912,
      "Ġits": 2913,
      "ç»ıåİĨ": 2914,
      "éļıæľº": 2915,
      "Ġsol": 2916,
      "è§Ī": 2917,
      "ä½łéľĢè¦ģ": 2918,
      "ç¢³": 2919,
      "æĢİä¹Ī": 2920,
      "èĵĿ": 2921,
      "ress": 2922,
      "æĺł": 2923,
      "ãģ®": 2924,
      "Ġbo": 2925,
      "éĢĻ": 2926,
      "åħ¨éĿ¢": 2927,
      "lease": 2928,
      "å®ĥä»¬çļĦ": 2929,
      "çľ¼": 2930,
      "here": 2931,
      "æľįåĬ¡åĻ¨": 2932,
      "åİħ": 2933,
      "æĬ¥åĳĬ": 2934,
      "right": 2935,
      "25": 2936,
      "orld": 2937,
      "ï¼īãĢģ": 2938,
      "æĺ¯æĮĩ": 2939,
      "æľ¨": 2940,
      "åº§": 2941,
      "é¦Ĩ": 2942,
      "æľīæķĪåľ°": 2943,
      "å¤ļå°ĳ": 2944,
      "é«ĺçļĦ": 2945,
      "æ²Ļ": 2946,
      "ä¸Ģé¦ĸ": 2947,
      "éĢĤéĩı": 2948,
      "Ġrep": 2949,
      "Ð¸": 2950,
      "Ġsuch": 2951,
      "å®ŀéªĮ": 2952,
      "è°ĥçĶ¨": 2953,
      "çīĪæľ¬": 2954,
      "ç¥ŀç»ı": 2955,
      "Ġfol": 2956,
      "å®ŀæĹ¶": 2957,
      "å©": 2958,
      "è®©æĪĳä»¬": 2959,
      "å¥ĸ": 2960,
      "æ¯Ĵ": 2961,
      "æ¶īåıĬåĪ°": 2962,
      "å¸®åĬ©ä½ł": 2963,
      "To": 2964,
      "åĿı": 2965,
      "æł¡": 2966,
      "éĢĲæ¸Ĳ": 2967,
      "nA": 2968,
      "è®¢": 2969,
      "è´¢åĬ¡": 2970,
      "å®ŀæĸ½": 2971,
      "Script": 2972,
      "è¿½æ±Ĥ": 2973,
      "æ¸ħæĻ°": 2974,
      "ä¸įè¦ģ": 2975,
      "çĽ¸åºĶ": 2976,
      "é¡»": 2977,
      "æĦ¿": 2978,
      "æ³ķè§Ħ": 2979,
      "ĠIn": 2980,
      "åĲįåŃĹ": 2981,
      "æķ°æį®éĽĨ": 2982,
      "çļĦéľĢæ±Ĥ": 2983,
      "åºıåĪĹ": 2984,
      "ne": 2985,
      "å®Ļ": 2986,
      "ç¾İåĽ½": 2987,
      "Ġalso": 2988,
      "èī¯å¥½çļĦ": 2989,
      "èĸ": 2990,
      "ä¸ļåĬ¡": 2991,
      "ide": 2992,
      "æĪĳä¼ļ": 2993,
      "éģµå¾ª": 2994,
      "ä¹ĭåīį": 2995,
      "formation": 2996,
      "ç»ĦåĲĪ": 2997,
      "ors": 2998,
      "æł¼å¼ı": 2999,
      "èĪĴéĢĤ": 3000,
      "çļĦå®īåħ¨": 3001,
      "çļĦç¬": 3002,
      "çļĦæ´": 3003,
      "åħ¬åħ±": 3004,
      "å®¹æĺĵ": 3005,
      "åıĤåĬł": 3006,
      "åĽ°éļ¾": 3007,
      "ca": 3008,
      "è·Ł": 3009,
      "å®ĩå®Ļ": 3010,
      "ç»ĦæĪĲ": 3011,
      "çļĦæ·": 3012,
      "ystem": 3013,
      "æĹ¨": 3014,
      "ML": 3015,
      "SQL": 3016,
      "æ¢¦": 3017,
      "åĨ³äºİ": 3018,
      "åıĸåĨ³äºİ": 3019,
      "åĬ¨æĢģ": 3020,
      "Ġtra": 3021,
      "ä¸Ģå®ļ": 3022,
      "åĪ¤æĸŃ": 3023,
      "åĪĨå¸ĥ": 3024,
      "éĤ®ä»¶": 3025,
      "ç±į": 3026,
      "æĿŁ": 3027,
      "çŃīé¢ĨåŁŁ": 3028,
      "ace": 3029,
      "æĦıä¹ī": 3030,
      "é¥°": 3031,
      "//": 3032,
      "æĲŃ": 3033,
      "ç§»åĬ¨": 3034,
      "Ġfile": 3035,
      "çļĦæ°´": 3036,
      "duct": 3037,
      "Ġbet": 3038,
      "ç®±": 3039,
      "åı¯ä»¥å¸®åĬ©ä½ł": 3040,
      "ç»§ç»Ń": 3041,
      "Ġinto": 3042,
      "çĦ¦èĻĳ": 3043,
      "å·¨": 3044,
      "py": 3045,
      "Ġabout": 3046,
      "nè¯·": 3047,
      "ï¼īãĢĤ\\": 3048,
      "tt": 3049,
      "my": 3050,
      "ount": 3051,
      "è·¯å¾Ħ": 3052,
      "æ´²": 3053,
      "çļĦç¼": 3054,
      "Ġdiffer": 3055,
      "ç»¿èī²": 3056,
      "ç©ºæ°Ķ": 3057,
      "çİĭ": 3058,
      "ating": 3059,
      "éĿ©": 3060,
      "èĽĭçĻ½": 3061,
      "cre": 3062,
      "çĽĲ": 3063,
      "åŃ¸": 3064,
      "éħ±": 3065,
      "ngth": 3066,
      "æĹ¢": 3067,
      "èĦĤ": 3068,
      "å¢ŀéķ¿": 3069,
      "éĺ¿": 3070,
      "çļĦåŃ¦ä¹ł": 3071,
      "¢å¤į": 3072,
      "è´¦": 3073,
      "èĨ": 3074,
      "éĻ¢": 3075,
      "ual": 3076,
      "Ġfollow": 3077,
      "æ£Ģæµĭ": 3078,
      "è¿ĺèĥ½": 3079,
      "çļĦæĸ¹å¼ı": 3080,
      "çľĭåĪ°": 3081,
      "ello": 3082,
      "ç¹ģ": 3083,
      "åŃ£èĬĤ": 3084,
      "å¿ħé¡»": 3085,
      "ä»¥ä¸ĭæĺ¯ä¸Ģä¸ª": 3086,
      "éľ²": 3087,
      "çĶ·": 3088,
      "Ġval": 3089,
      "Ġform": 3090,
      "ä½łå¥½": 3091,
      "è¯·æ±Ĥ": 3092,
      "ç»ĺ": 3093,
      "æĿ¯": 3094,
      "è´¡": 3095,
      "Ġkn": 3096,
      "mb": 3097,
      "æĸĩåŃ¦": 3098,
      "\\',": 3099,
      "ous": 3100,
      "å®Įåħ¨": 3101,
      "çļĦä½¿çĶ¨": 3102,
      "åķĨä¸ļ": 3103,
      "åĽº": 3104,
      "sum": 3105,
      "æ°ĶåĢĻåıĺåĮĸ": 3106,
      "))": 3107,
      "æ£®": 3108,
      "å¦Ĥä¸ĭ": 3109,
      "å¤įæĿĤçļĦ": 3110,
      "èĩ³åħ³": 3111,
      "æķ°æį®åĪĨæŀĲ": 3112,
      "è¯´æĺİ": 3113,
      "\"},": 3114,
      "è·¨": 3115,
      "ark": 3116,
      "ays": 3117,
      "ze": 3118,
      "æ¯ĶèµĽ": 3119,
      "è´¡çĮ®": 3120,
      "æĶ¯ä»ĺ": 3121,
      "rent": 3122,
      "åģľ": 3123,
      "èĹı": 3124,
      "æīĵåį°": 3125,
      "è¾ħ": 3126,
      "æİ¢è®¨": 3127,
      "éĿĴ": 3128,
      "çļĦæĦŁ": 3129,
      "ative": 3130,
      "ell": 3131,
      "æľĢä½³": 3132,
      "ç¨İ": 3133,
      "çºª": 3134,
      "åĭĩ": 3135,
      "çģ¯": 3136,
      "ï¼ī**ï¼ļ": 3137,
      "èĢĹ": 3138,
      "fore": 3139,
      "ä¸ĭæĿ¥": 3140,
      "æı¡": 3141,
      "æİĮ": 3142,
      "Ġwhere": 3143,
      "å¸ģ": 3144,
      "çļĦæĥħæĦŁ": 3145,
      "å°¤åħ¶": 3146,
      "æ¶Īè´¹èĢħ": 3147,
      "éĺ³åħī": 3148,
      "éŁ": 3149,
      "row": 3150,
      "å°±æĺ¯": 3151,
      "è¾¾åĪ°": 3152,
      "èŃ¦": 3153,
      "Ġ12": 3154,
      "åĮĸåŃ¦": 3155,
      "èĳĹåĲį": 3156,
      "é¾Ħ": 3157,
      "Ġword": 3158,
      "ä¼½": 3159,
      "ä¸¥éĩį": 3160,
      "èĢĲ": 3161,
      "èĥ½éĩı": 3162,
      "èĬĤçĤ¹": 3163,
      "æ´ŀ": 3164,
      "è¡¥": 3165,
      "Ġì": 3166,
      "èĤĮ": 3167,
      "çļĦçł": 3168,
      "ä½ĵçļĦ": 3169,
      "Ġthen": 3170,
      "çĽ¸å¯¹": 3171,
      "æīĭæľº": 3172,
      "ER": 3173,
      "åįļ": 3174,
      "éĢīé¡¹": 3175,
      "åĮºåŁŁ": 3176,
      "æĪĳå°Ĩ": 3177,
      "åĮ¹": 3178,
      "åįĬ": 3179,
      "çĤ¼": 3180,
      "åį«": 3181,
      "\":": 3182,
      "çĲĨè§£åĴĮ": 3183,
      "çĽĳæµĭ": 3184,
      "åĿĲ": 3185,
      "Ġthey": 3186,
      "data": 3187,
      "èĢĮä¸įæĺ¯": 3188,
      "ç½Ĺ": 3189,
      "its": 3190,
      "Ġwork": 3191,
      "Ġrange": 3192,
      "è®¾å®ļ": 3193,
      "èĭ±æĸĩ": 3194,
      "cal": 3195,
      "ä¼ĺåĬ¿": 3196,
      "Ġgiven": 3197,
      "æģ¢å¤į": 3198,
      "æŁ¥çľĭ": 3199,
      "ç¨ĭåº¦": 3200,
      "åħ¬å¼ı": 3201,
      "Ġinteg": 3202,
      "åĨħåŃĺ": 3203,
      "åį±": 3204,
      "æĮ¥": 3205,
      "ä½Ļ": 3206,
      "èĤ¤": 3207,
      "stance": 3208,
      "Hello": 3209,
      "æ¨¡æĭŁ": 3210,
      "æĮĩçļĦæĺ¯": 3211,
      "åĬ³": 3212,
      "ten": 3213,
      "æ±ĩ": 3214,
      "Ġinput": 3215,
      "Ġcomm": 3216,
      "Ġsub": 3217,
      "Ġthan": 3218,
      "Ġinformation": 3219,
      "æĹ¨åľ¨": 3220,
      "æĤ¨éľĢè¦ģ": 3221,
      "åı£æĦŁ": 3222,
      "çģµæ´»": 3223,
      "ĠK": 3224,
      "Ã©": 3225,
      "Ġcur": 3226,
      "nåĽłæŃ¤": 3227,
      "ç£": 3228,
      "ç¾İé£Ł": 3229,
      "ç³»ç»ŁçļĦ": 3230,
      "æ¡Ĩæŀ¶": 3231,
      "ä¸ºä»Ģä¹Ī": 3232,
      "åŁ¹åħ»": 3233,
      "ľä¼½": 3234,
      "ä¸Ģä»½": 3235,
      "å¸®åĬ©æĤ¨": 3236,
      "Ġrequ": 3237,
      "çĽ¸åĲĮ": 3238,
      "èĭ±è¯Ń": 3239,
      "éĴĪå¯¹": 3240,
      "Ġarray": 3241,
      "é¸Ł": 3242,
      "è¾Ĩ": 3243,
      "ç»¼åĲĪ": 3244,
      "åĪ¶éĢł": 3245,
      "Ġname": 3246,
      "åĲĪéĢĤçļĦ": 3247,
      "11": 3248,
      "æ¶²": 3249,
      "=\"": 3250,
      "Ġel": 3251,
      "led": 3252,
      "æħ§": 3253,
      "pend": 3254,
      "thod": 3255,
      "çļĦæ¦Ĥ": 3256,
      "hat": 3257,
      "ä¼ļè®®": 3258,
      "eb": 3259,
      "ndom": 3260,
      "å·¥ç¨ĭ": 3261,
      "å®ĥçļĦ": 3262,
      "æ¼«": 3263,
      "po": 3264,
      "æľīçĿĢ": 3265,
      "Ġå°Ĩ": 3266,
      "åľ¨è¿Ļä¸ª": 3267,
      "cept": 3268,
      "lect": 3269,
      "å¹³çŃī": 3270,
      "çİ¯å¢ĥä¿ĿæĬ¤": 3271,
      "Ġpri": 3272,
      "åĵįåºĶ": 3273,
      "ib": 3274,
      "tra": 3275,
      "çļĦæķħäºĭ": 3276,
      "sel": 3277,
      "å³": 3278,
      "æ½ľåľ¨": 3279,
      "ased": 3280,
      "çļĦæĮĩ": 3281,
      "Ġgener": 3282,
      "è¿ĻæľīåĬ©äºİ": 3283,
      "ãĢĤâĢĿ": 3284,
      "åĴĮæĸĩåĮĸ": 3285,
      "åı¯æĮģç»Ńåıĳå±ķ": 3286,
      "Ġassi": 3287,
      "nè¿Ļ": 3288,
      "né¦ĸåħĪ": 3289,
      "æ¤Ĵ": 3290,
      "çļĦé£İéĻ©": 3291,
      "ä¸Ńæĸĩ": 3292,
      "æ¯ıå¤©": 3293,
      "Ġthere": 3294,
      "éĻ¤äºĨ": 3295,
      "æĹ¶åĢĻ": 3296,
      "çī©åĵģ": 3297,
      "ä¹¦ç±į": 3298,
      "ID": 3299,
      "Ġthese": 3300,
      "Ġmy": 3301,
      "æĢ»ç»ĵ": 3302,
      "å°Ĩåħ¶": 3303,
      "`ï¼Į": 3304,
      "ility": 3305,
      "ä½Ĩä¸į": 3306,
      "erson": 3307,
      "çĶ¨çļĦ": 3308,
      "æĿ¥å®ŀçİ°": 3309,
      "èī¾": 3310,
      "end": 3311,
      "çŃĶæ¡Ī": 3312,
      "ç¼©": 3313,
      "Ġterm": 3314,
      "éĻĲäºİ": 3315,
      "åĮ¹éħį": 3316,
      "pon": 3317,
      "ude": 3318,
      "æĿ¥æºĲ": 3319,
      "gle": 3320,
      "éĿ¢ç§¯": 3321,
      "ify": 3322,
      "åı¯ä»¥è®©": 3323,
      "éĺµ": 3324,
      "æ¬¢è¿İ": 3325,
      "æĬĺ": 3326,
      "æĬĹ": 3327,
      "çĽ¸äºĴ": 3328,
      "uld": 3329,
      "çĽ¸åħ³çļĦ": 3330,
      "é¤Ĳåİħ": 3331,
      "åīĤ": 3332,
      "Ġund": 3333,
      "ular": 3334,
      "æĺ¾èĳĹ": 3335,
      "ding": 3336,
      "mo": 3337,
      "str": 3338,
      "å¹´é¾Ħ": 3339,
      "åºĶçĶ¨ç¨ĭåºı": 3340,
      "Ġcould": 3341,
      "ä¸°å¯ĮçļĦ": 3342,
      "ish": 3343,
      "Ġpar": 3344,
      "ç»ĨèĬĤ": 3345,
      "å®¶å±ħ": 3346,
      "æĮĩå¯¼": 3347,
      "ute": 3348,
      "ery": 3349,
      "å¯Ĩçłģ": 3350,
      "Ð½": 3351,
      "åħ¬åı¸çļĦ": 3352,
      "å°ıæĹ¶": 3353,
      "å®½": 3354,
      "Ġam": 3355,
      "éĺ¶æ®µ": 3356,
      "</": 3357,
      "ç¡®å®ŀ": 3358,
      "æĢ§åĪ«": 3359,
      "æĶ»": 3360,
      "èĪ¬": 3361,
      "æľīå¾Īå¤ļ": 3362,
      "å¥³æĢ§": 3363,
      "çļĦæ·±": 3364,
      "nIn": 3365,
      "ç¾İä¸½": 3366,
      "ç»Ŀ": 3367,
      "åŃĹæ¯į": 3368,
      "Ġmin": 3369,
      "çĤĴ": 3370,
      "ound": 3371,
      "äº¤äºĴ": 3372,
      "æ®Ĭ": 3373,
      "åĮĹäº¬": 3374,
      "numbers": 3375,
      "åľ¨æŁĲäºĽ": 3376,
      "Ġwant": 3377,
      "ï¼ļâĢľ": 3378,
      "å»¶": 3379,
      "js": 3380,
      "è§Ĵåº¦": 3381,
      "åĽ¢éĺŁæĪĲåĳĺ": 3382,
      "app": 3383,
      "åı³": 3384,
      "å¥ı": 3385,
      "æĪĲä¸ºäºĨ": 3386,
      "çļĦä¸»è¦ģ": 3387,
      "å¼ĢæĶ¾": 3388,
      "ï¼ģ'},": 3389,
      "éĽ¶": 3390,
      "Ġ>": 3391,
      "æĪĳä»¬åºĶè¯¥": 3392,
      "HT": 3393,
      "çī¹æ®Ĭ": 3394,
      "çİ©å®¶": 3395,
      "æ±ł": 3396,
      "è¿ĩåº¦": 3397,
      "æıĴ": 3398,
      "åĴĮè°": 3399,
      "å¹¶ä¸į": 3400,
      "çº¸": 3401,
      "éĩįæĸ°": 3402,
      "á»": 3403,
      "çĳľä¼½": 3404,
      "LE": 3405,
      "æĩ": 3406,
      "åħ±äº«": 3407,
      "éĽĨæĪĲ": 3408,
      "ä»įçĦ¶": 3409,
      "inal": 3410,
      "çļĦåģ¥åº·": 3411,
      "è¿Ļç¯ĩæĸĩç«ł": 3412,
      "API": 3413,
      "ices": 3414,
      "Ġgo": 3415,
      "å®īæİĴ": 3416,
      "éĩıåŃĲ": 3417,
      "âĢĶ": 3418,
      "å±ķçİ°": 3419,
      "ä¸Ĭä¸ĭ": 3420,
      "ï¼Į`": 3421,
      "è©": 3422,
      "åĪĨåĪ«": 3423,
      "arr": 3424,
      "é¢Ħç®Ĺ": 3425,
      "Ġ```\\": 3426,
      "::": 3427,
      "çļĦåħ·ä½ĵ": 3428,
      "ä»ĸäºº": 3429,
      "è´ŁéĿ¢": 3430,
      "å¹»": 3431,
      "è´Ńçī©": 3432,
      "éĸ": 3433,
      "ãģĻ": 3434,
      "pro": 3435,
      "å®īåħ¨æĢ§": 3436,
      "ens": 3437,
      "æī©å±ķ": 3438,
      "çĶŁæ´»ä¸Ń": 3439,
      "çļĦæ¨": 3440,
      "\\\\(": 3441,
      "åĵĪ": 3442,
      "ĠHowever": 3443,
      "Ġprogram": 3444,
      "date": 3445,
      "åıĳæĮ¥": 3446,
      "ä¸Ģèĩ´": 3447,
      "è·³": 3448,
      "Ġtext": 3449,
      "ç»Ļå®ļ": 3450,
      "è·ĳ": 3451,
      "ick": 3452,
      "åºĶçĶ¨äºİ": 3453,
      "åħ¶æ¬¡": 3454,
      "éĵģ": 3455,
      "che": 3456,
      "Ġover": 3457,
      "ç¬¬äºĮ": 3458,
      "æµ·æ´ĭ": 3459,
      "çļĦçİ¯å¢ĥ": 3460,
      "çļĦæ´»": 3461,
      "é¢Ħéĺ²": 3462,
      "é«ĺåº¦": 3463,
      "çĶ³": 3464,
      "éĢıæĺİ": 3465,
      "è¯Ńæ³ķ": 3466,
      "éĶ»": 3467,
      "çĸĳ": 3468,
      "æĸ¹ç¨ĭ": 3469,
      "èĦļæľ¬": 3470,
      "è®°å¿Ĩ": 3471,
      "Ġ\\\\)": 3472,
      "å·¦": 3473,
      "Ġcount": 3474,
      "day": 3475,
      "è¿Ļä¸ªéĹ®é¢ĺ": 3476,
      "å¡ĳæĸĻ": 3477,
      "åĩıè½»": 3478,
      "æľīåĵªäºĽ": 3479,
      "æĬ½": 3480,
      "18": 3481,
      "ĠHere": 3482,
      "åı¯éĿł": 3483,
      "åħ¬ä¼Ĺ": 3484,
      "åĢ¾": 3485,
      "éĶ»çĤ¼": 3486,
      "å¿ħè¦ģçļĦ": 3487,
      "æĪĳéľĢè¦ģ": 3488,
      "æİĴæĶ¾": 3489,
      "æ»©": 3490,
      "æķĻåŃ¦": 3491,
      "Ġcontext": 3492,
      "åĨ²çªģ": 3493,
      "self": 3494,
      "åĲįä¸º": 3495,
      "rite": 3496,
      "ty": 3497,
      "éĺ²æŃ¢": 3498,
      "Ġinclud": 3499,
      "Ġ100": 3500,
      "å¸¸è§ģçļĦ": 3501,
      "å¤§åĪ©": 3502,
      "Ñģ": 3503,
      "æĹĭ": 3504,
      "æĸ°éĹ»": 3505,
      "å¹¸": 3506,
      "çļĦçģ": 3507,
      "vid": 3508,
      "è¯ļ": 3509,
      "ä¾ĽåºĶ": 3510,
      "æŃ£ç¡®çļĦ": 3511,
      "ultip": 3512,
      "))\\": 3513,
      "çıŃ": 3514,
      "æ°´æŀľ": 3515,
      "16": 3516,
      "ä¼łæĴŃ": 3517,
      "Re": 3518,
      "å»ºè®¾": 3519,
      "çī¹æĢ§": 3520,
      "igh": 3521,
      "è§Ĥå¯Ł": 3522,
      "æ¨¡åŀĭçļĦ": 3523,
      "è¸ª": 3524,
      "Ð¾Ð": 3525,
      "çļĦæĬķ": 3526,
      "åıªæľī": 3527,
      "çļĦçľ": 3528,
      "sible": 3529,
      "éĹŃ": 3530,
      "çħ®": 3531,
      "Ġget": 3532,
      "åħ¬å¹³": 3533,
      "çİ°è±¡": 3534,
      "Ġcomple": 3535,
      "å¼ķèµ·": 3536,
      "ution": 3537,
      "ook": 3538,
      "æĦŁåıĹ": 3539,
      "åı¯èĥ½å¯¼èĩ´": 3540,
      "read": 3541,
      "ä¼¦çĲĨ": 3542,
      "åĨ¥": 3543,
      "å°¼": 3544,
      "ia": 3545,
      "ç½²": 3546,
      "Ġdiv": 3547,
      "Ġpl": 3548,
      "æĲŃéħį": 3549,
      "Ġyear": 3550,
      "orted": 3551,
      "ç¼ĵè§£": 3552,
      "ç±»åŀĭçļĦ": 3553,
      "Ġmany": 3554,
      "nF": 3555,
      "çĶ¨æĿ¥": 3556,
      "que": 3557,
      "åĬłå¯Ĩ": 3558,
      "ä¸Ģä½į": 3559,
      "æ²³": 3560,
      "å®Įæķ´": 3561,
      "ater": 3562,
      "æľ«": 3563,
      "pect": 3564,
      "æİĮæı¡": 3565,
      "Ġhis": 3566,
      "è´¹çĶ¨": 3567,
      "è¿Ļæĺ¯ä¸Ģä¸ª": 3568,
      "æīĢéľĢ": 3569,
      "æ³¡": 3570,
      "èĽĭçĻ½è´¨": 3571,
      "è§£åĨ³éĹ®é¢ĺ": 3572,
      "æİ¨å¹¿": 3573,
      "éĨĴ": 3574,
      "æ¸ħæ´ģ": 3575,
      "AR": 3576,
      "ĠCh": 3577,
      "sw": 3578,
      "çļĦæĮĳæĪĺ": 3579,
      "æīĵå¼Ģ": 3580,
      "ments": 3581,
      "æĢĿæĥ³": 3582,
      "red": 3583,
      "çļĦæ¨¡": 3584,
      "è§Ĥä¼Ĺ": 3585,
      "Ġuser": 3586,
      "éľĢè¦ģæ³¨æĦı": 3587,
      "Ġinter": 3588,
      "éĶħ": 3589,
      "èĢħçļĦ": 3590,
      "ç»Łè®¡": 3591,
      "ç¬ĳ": 3592,
      "ines": 3593,
      "Ġmax": 3594,
      "æľīäºĽ": 3595,
      "use": 3596,
      "åİŁçĲĨ": 3597,
      "Ġmethod": 3598,
      "sh": 3599,
      "çµ": 3600,
      "Ġob": 3601,
      "çĪ±æĥħ": 3602,
      "ween": 3603,
      "å¸¦æĿ¥äºĨ": 3604,
      "Ġcalculate": 3605,
      "è§Ħæ¨¡": 3606,
      "èĩ³åħ³éĩįè¦ģ": 3607,
      "çĹĽ": 3608,
      "åĨ¥æĥ³": 3609,
      "é¢Ŀå¤ĸ": 3610,
      "å¦Ĥä½ķåľ¨": 3611,
      "Ġcharact": 3612,
      "çº³": 3613,
      "ä¹İ": 3614,
      "ÑĢ": 3615,
      "äºĴèģĶç½ĳ": 3616,
      "ps": 3617,
      "çŁ©": 3618,
      "çĽ®åīį": 3619,
      "sqrt": 3620,
      "åĴĮè°Ĳ": 3621,
      "åĴĮç¤¾ä¼ļ": 3622,
      "ä¼ĳæģ¯": 3623,
      "Ġæĺ¯": 3624,
      "åĪł": 3625,
      "æ··åĲĪ": 3626,
      "elf": 3627,
      "åģıå¥½": 3628,
      "ĠFor": 3629,
      "éģµå®Ī": 3630,
      "ä¹Łä¼ļ": 3631,
      "Ġtrans": 3632,
      "åĮĢ": 3633,
      "èº«ä»½": 3634,
      "Ġcor": 3635,
      "Ġwhen": 3636,
      "col": 3637,
      "cy": 3638,
      "Ġph": 3639,
      "æį·": 3640,
      "div": 3641,
      "åįıä½ľ": 3642,
      "lace": 3643,
      "äººç±»çļĦ": 3644,
      "åı«": 3645,
      "åĨĽ": 3646,
      "å®£": 3647,
      "Ġclass": 3648,
      "çĻ¾": 3649,
      "Ġpoint": 3650,
      "è½¦è¾Ĩ": 3651,
      "å¾Ģå¾Ģ": 3652,
      "åĢĴ": 3653,
      "ax": 3654,
      "Ġthem": 3655,
      "Ġunder": 3656,
      "file": 3657,
      "æŁ¥æī¾": 3658,
      "çĶľ": 3659,
      "åĨĴ": 3660,
      "Ġcheck": 3661,
      "åı£åĳ³": 3662,
      "ä»·åĢ¼è§Ĥ": 3663,
      "ä¿Ŀåģ¥": 3664,
      "æ¹¿": 3665,
      "åı¯ä»¥å¸®åĬ©æĤ¨": 3666,
      "rou": 3667,
      "ator": 3668,
      "ä½Ľ": 3669,
      "ä¾Ĩ": 3670,
      "ä½Ĩä¸įéĻĲäºİ": 3671,
      "è®©æĪĳ": 3672,
      "æīĢè¿°": 3673,
      "æķ´ä½ĵ": 3674,
      "ä¸Ĭä¸ĭæĸĩ": 3675,
      "('": 3676,
      "ï¼īãĢĤ": 3677,
      "++": 3678,
      "åĮħæĭ¬ä½Ĩä¸įéĻĲäºİ": 3679,
      "å¹¶åľ¨": 3680,
      "çļĦæ³ķ": 3681,
      "ics": 3682,
      "Ġelse": 3683,
      "main": 3684,
      "çĶŁéķ¿": 3685,
      "çļĦè¿ĩç¨ĭ": 3686,
      "ç¬Ķ": 3687,
      "æī®": 3688,
      "æľīæķĪçļĦ": 3689,
      "åħħåĪĨ": 3690,
      "åĢĳ": 3691,
      "ON": 3692,
      "çļĦæĻº": 3693,
      "çļĦç¼ĸ": 3694,
      "è³": 3695,
      "èµı": 3696,
      "å°ļ": 3697,
      "ä¸Ŀ": 3698,
      "nH": 3699,
      "å¹¿åĳĬ": 3700,
      "å°º": 3701,
      "ublic": 3702,
      "æŁĲä¸ª": 3703,
      "ml": 3704,
      "çļĦçłĶ": 3705,
      "æľĢå°ı": 3706,
      "å¥Ĺ": 3707,
      "Ġlet": 3708,
      "éĢļå¸¸ä¼ļ": 3709,
      "ç²¾ç¥ŀ": 3710,
      "è´¥": 3711,
      "çľģ": 3712,
      "æ¿Ģåıĳ": 3713,
      "åı¯ä»¥æıĲä¾Ľ": 3714,
      "Ġprovid": 3715,
      "çļĦéĩįè¦ģæĢ§": 3716,
      "202": 3717,
      "ise": 3718,
      "éĤ£äºĽ": 3719,
      "æĹ¶æľŁ": 3720,
      "âĢĿãĢģ": 3721,
      "åİŁåĪĻ": 3722,
      "ron": 3723,
      "Ġbetween": 3724,
      "ç»ıåħ¸": 3725,
      "Ġquest": 3726,
      "CT": 3727,
      "å¤ıå¤©": 3728,
      "Ġdifferent": 3729,
      "æ¨¡åĿĹ": 3730,
      "åĨĻä½ľ": 3731,
      "çļĦåľ°æĸ¹": 3732,
      "é¡ºåºı": 3733,
      "è®¾æĸ½": 3734,
      "åĿĢ": 3735,
      "irect": 3736,
      "æ»¡æĦı": 3737,
      "æ£®æŀĹ": 3738,
      "åı¦å¤ĸ": 3739,
      "çĻ»": 3740,
      "æķ¸": 3741,
      "ä¿¡ä»»": 3742,
      "Ġsent": 3743,
      "å®ĺæĸ¹": 3744,
      "éĵ¶è¡Į": 3745,
      "èĢĮä¸Ķ": 3746,
      "åĪłéĻ¤": 3747,
      "çĿ¡çľł": 3748,
      "æ³¨éĩį": 3749,
      "±ä¹Ĳ": 3750,
      "èĥľ": 3751,
      "ç¼ĸè¾ĳ": 3752,
      "çĽ´åĪ°": 3753,
      "cial": 3754,
      "ä¸ĬæīĢè¿°": 3755,
      "çĶµèĦĳ": 3756,
      "nThis": 3757,
      "è¡¨æł¼": 3758,
      "rue": 3759,
      "è¾ħåĬ©": 3760,
      "åıĳå¸ĥ": 3761,
      "å·¥ä¸ļ": 3762,
      "æµĵ": 3763,
      "çĩĥ": 3764,
      "èī²çļĦ": 3765,
      "å¤§éĩıçļĦ": 3766,
      "Ġdoes": 3767,
      "é¡µéĿ¢": 3768,
      "è¡¨éĿ¢": 3769,
      "è¾£": 3770,
      "ite": 3771,
      "dex": 3772,
      "éģįåİĨ": 3773,
      "é¾Ļ": 3774,
      "oc": 3775,
      "åį´": 3776,
      "åı¯ä»¥æıĲé«ĺ": 3777,
      "ç±»ä¼¼": 3778,
      "èĤ¡ç¥¨": 3779,
      "æĻĤ": 3780,
      "çĥĪ": 3781,
      "åĮºåĿĹ": 3782,
      "åħ°": 3783,
      "angu": 3784,
      "ç»¼ä¸ĬæīĢè¿°": 3785,
      "è½®": 3786,
      "ä¿¡åı·": 3787,
      "éĢĢ": 3788,
      "åį·": 3789,
      "è¯Ŀé¢ĺ": 3790,
      "âĢĿãĢģâĢľ": 3791,
      "Ġprocess": 3792,
      "Ġcurrent": 3793,
      "ake": 3794,
      "éĥ¨ç½²": 3795,
      "æİ¥ä¸ĭæĿ¥": 3796,
      "oh": 3797,
      "è¿Ļå°Ĩ": 3798,
      "åĲĦä¸ª": 3799,
      "ä¹ħ": 3800,
      "çģ¾": 3801,
      "è°±": 3802,
      "æĽ´å¥½çļĦ": 3803,
      "æĳĦåħ¥": 3804,
      "ï¼ļ'},": 3805,
      "60": 3806,
      "éĥ½èĥ½": 3807,
      "ç¿Ĵ": 3808,
      "æķ°çļĦ": 3809,
      "'re": 3810,
      "In": 3811,
      "éľĢè¦ģèĢĥèĻĳ": 3812,
      "æ²ī": 3813,
      "æĻºæħ§": 3814,
      "Ġself": 3815,
      "rough": 3816,
      "æĺĵäºİ": 3817,
      "è°Ī": 3818,
      "æī¹": 3819,
      "ures": 3820,
      "è¯Ħä»·": 3821,
      "çĽ®çļĦ": 3822,
      "ç§°ä¸º": 3823,
      "nç»¼ä¸ĬæīĢè¿°": 3824,
      "åŃĹåħ¸": 3825,
      "åĬĽçļĦ": 3826,
      "Ġshould": 3827,
      "å±ŀæĢ§": 3828,
      "ä¸ĵæ³¨": 3829,
      "Ġkey": 3830,
      "ä½įäºİ": 3831,
      "Ģæľī": 3832,
      "è²": 3833,
      "ont": 3834,
      "èī²å½©": 3835,
      "Ġstart": 3836,
      "æıĲåĪ°": 3837,
      "rix": 3838,
      "set": 3839,
      "éĥ¨éĹ¨": 3840,
      "nè¿ĻäºĽ": 3841,
      "è¯·ä½ł": 3842,
      "åĨľä¸ļ": 3843,
      "åºŁ": 3844,
      "çīĻ": 3845,
      "åĵªä¸ª": 3846,
      "çļĦçŁ¥": 3847,
      "ç¥Ŀ": 3848,
      "æļ´": 3849,
      "çĥ§": 3850,
      "value": 3851,
      "Ġvari": 3852,
      "åģ¥èº«": 3853,
      "åįĥ": 3854,
      "æŁĶ": 3855,
      "cor": 3856,
      "åıĸå¾Ĺ": 3857,
      "ç»ĵæĿŁ": 3858,
      "dd": 3859,
      "ince": 3860,
      "ä½łåı¯ä»¥ä½¿çĶ¨": 3861,
      "æī®æ¼Ķ": 3862,
      "åı¯ä»¥æł¹æį®": 3863,
      "æĮĩæłĩ": 3864,
      "éļĶ": 3865,
      "åį³åı¯": 3866,
      "å°±ä¸ļ": 3867,
      "å¹ķ": 3868,
      "Ġcreate": 3869,
      "alse": 3870,
      "ä»¿": 3871,
      "æıĲä¾Ľä¸ĢäºĽ": 3872,
      "çŃīäºİ": 3873,
      "åı¤ä»£": 3874,
      "ç¥ŀç»ıç½ĳç»ľ": 3875,
      "åı¯ä»¥æĺ¯": 3876,
      "çļĦåŁºæľ¬": 3877,
      "é»ĺ": 3878,
      "çŃīæĸ¹å¼ı": 3879,
      "èĤª": 3880,
      "èĦĤèĤª": 3881,
      "æ»ĳ": 3882,
      "åĪĿå§ĭ": 3883,
      "çļĦçĥŃ": 3884,
      "ings": 3885,
      "æ¬§": 3886,
      "é¢Ĩå¯¼": 3887,
      "Ġshe": 3888,
      "æľīä¸Ģ": 3889,
      "ä¸»ä¹ī": 3890,
      "åĬ¨åĬĽ": 3891,
      "æĸĩç«łä¸ŃæıĲåıĸ": 3892,
      "result": 3893,
      "æĺ¯çļĦ": 3894,
      "è°¢è°¢": 3895,
      "å£°éŁ³": 3896,
      "Ġimp": 3897,
      "ä»¥ä¸ĭåĩłä¸ªæĸ¹éĿ¢": 3898,
      "lib": 3899,
      "çĽ¸ä¼¼": 3900,
      "vel": 3901,
      "çĤ¹åĩ»": 3902,
      "ĠEx": 3903,
      "ãĤĴ": 3904,
      "åĴĮåħ¶ä»ĸ": 3905,
      "Ġdi": 3906,
      "åĴĮæ²»çĸĹ": 3907,
      "çļĦæŃ£": 3908,
      "çļĦåĨħå®¹": 3909,
      "å®ļä½į": 3910,
      "ç«¥": 3911,
      "åĩĨç¡®åľ°": 3912,
      "çĤİ": 3913,
      "çļĦæĥħåĨµä¸ĭ": 3914,
      "äºĭæĥħ": 3915,
      "åĴĮç®¡çĲĨ": 3916,
      "çļĦåŁºç¡Ģ": 3917,
      "éĽª": 3918,
      "input": 3919,
      "åĪĨä¸º": 3920,
      "èŀįåĲĪ": 3921,
      "æ±ģ": 3922,
      "åĬ¨ä½ľ": 3923,
      "è¿Ľåħ¥": 3924,
      "åı¯èĥ½æĺ¯": 3925,
      "éŃĶ": 3926,
      "å¯¹æĸ¹": 3927,
      "å²Ľ": 3928,
      "ä¸įè¿ĩ": 3929,
      "ç»©": 3930,
      "åĬ©æīĭ": 3931,
      "14": 3932,
      "åĽŀæĶ¶": 3933,
      "å¡«": 3934,
      "è§īå¾Ĺ": 3935,
      "Ġarr": 3936,
      "éķľ": 3937,
      "Ġwhat": 3938,
      "è´µ": 3939,
      "ä½ĵçİ°": 3940,
      "Ex": 3941,
      "æĶ¶åħ¥": 3942,
      "åŁºåĽł": 3943,
      "nåľ¨è¿Ļä¸ª": 3944,
      "æĥł": 3945,
      "çļĦæĶ¯": 3946,
      "æİ¥æĶ¶": 3947,
      "é¢ĳçİĩ": 3948,
      "çĶŁæĢģç³»ç»Ł": 3949,
      "Ġansw": 3950,
      "ä¿Ŀè¯ģ": 3951,
      "ä¿ĿéĻ©": 3952,
      "çļĦçĪ": 3953,
      "å°ģ": 3954,
      "ĠĠĠĠĠ": 3955,
      "èĩªåĬ¨é©¾é©¶": 3956,
      "no": 3957,
      "çĬ¯": 3958,
      "è¦Ĩ": 3959,
      "å²ģ": 3960,
      "èĥģ": 3961,
      "åĴĮåºĶçĶ¨": 3962,
      "Ġequation": 3963,
      "æķĳ": 3964,
      "¹é¥": 3965,
      "èĤĮèĤī": 3966,
      "å½¢çĬ¶": 3967,
      "èĥŀ": 3968,
      "çļĦæ´»åĬ¨": 3969,
      "¹é¥ª": 3970,
      "å¯¹çİ¯å¢ĥ": 3971,
      "è®²è¿°": 3972,
      "åĩĢ": 3973,
      "val": 3974,
      "Ġmode": 3975,
      "æĶ»åĩ»": 3976,
      "sp": 3977,
      "åĴĮåĪĨæŀĲ": 3978,
      "çļĦå°ı": 3979,
      "Ġboth": 3980,
      "å¨ģèĥģ": 3981,
      "èĳ±": 3982,
      "åĮºåĿĹéĵ¾": 3983,
      "ç¾İåĳ³": 3984,
      "ä»¥ä¸ĭåĩł": 3985,
      "ç§įæĹı": 3986,
      "åįķä½į": 3987,
      "lot": 3988,
      "cond": 3989,
      "èī¯å¥½": 3990,
      "oogle": 3991,
      "nè¿Ļä¸ª": 3992,
      "æİĪ": 3993,
      "ask": 3994,
      "ä½łè®¤ä¸º": 3995,
      "ities": 3996,
      "ler": 3997,
      "çļĦæīĢæľī": 3998,
      "Ġdes": 3999,
      "^{": 4000,
      "fter": 4001,
      "åı¥è¯Ŀ": 4002,
      "RO": 4003,
      "çļĦæİ¨": 4004,
      "é¢ĺçĽ®": 4005,
      "Ġ30": 4006,
      "ä»Ĭå¤©": 4007,
      "çļĦæĿ¥è¯´": 4008,
      "Ġbu": 4009,
      "æ¶¦": 4010,
      "è¯Ńåı¥": 4011,
      "ĠAI": 4012,
      "çķĮéĿ¢": 4013,
      "åľ°æĸ¹": 4014,
      "ç´§æĢ¥": 4015,
      "äººå·¥æĻºèĥ½çļĦ": 4016,
      "åı¯ä»¥çĶ¨äºİ": 4017,
      "è£ħé¥°": 4018,
      "ful": 4019,
      "çĶŁç´ł": 4020,
      "JavaScript": 4021,
      "gest": 4022,
      "åŃ¦æł¡": 4023,
      "Ġ'\"": 4024,
      "è°·": 4025,
      "åĿĩåĮĢ": 4026,
      "èĩ³å°ĳ": 4027,
      "Ġrel": 4028,
      "è§Ħå®ļ": 4029,
      "æĸĩåĮĸåĴĮ": 4030,
      "ä¼ĺåħĪ": 4031,
      "è®©äºº": 4032,
      "Ġoper": 4033,
      "æ±¤": 4034,
      "Ġwho": 4035,
      "åĭķ": 4036,
      "It": 4037,
      "AT": 4038,
      "åı¯ä»¥èĢĥèĻĳ": 4039,
      "nå¸ĮæľĽ": 4040,
      "éĢļä¿¡": 4041,
      "Ġseems": 4042,
      "Ġcost": 4043,
      "åı¯èĥ½ä¼ļå¯¼èĩ´": 4044,
      "åįĪ": 4045,
      "Ġthrough": 4046,
      "åĬłè½½": 4047,
      "çļĦåĢ¼": 4048,
      "40": 4049,
      "Ġpe": 4050,
      "æĪĸåħ¶ä»ĸ": 4051,
      "åİŁå§ĭ": 4052,
      "çĶŁåŃĺ": 4053,
      "(\\'": 4054,
      "é£ŁæĿĲ": 4055,
      ").": 4056,
      "åĮĸåĴĮ": 4057,
      "åĢ¼å¾Ĺ": 4058,
      "pen": 4059,
      "Ġproduct": 4060,
      "é¡¶": 4061,
      "åľ¨åĮ»çĸĹé¢ĨåŁŁ": 4062,
      "Ġ}": 4063,
      "Ġ15": 4064,
      "æĹ¥æľ¬": 4065,
      "Ġvalues": 4066,
      "ok": 4067,
      "æľĿ": 4068,
      "Ġè¾ĵåĩº": 4069,
      "cd": 4070,
      "å¨±ä¹Ĳ": 4071,
      "åĪº": 4072,
      "ç»Ĩèĥŀ": 4073,
      "çļĦæµ·": 4074,
      "åģ¥åº·çļĦ": 4075,
      "æ·±è¿ľ": 4076,
      "ıè§Ī": 4077,
      "åľ¨ä¸įåĲĮ": 4078,
      "å®¶äºº": 4079,
      "å©ļ": 4080,
      "ä¼łè¾ĵ": 4081,
      "çļĦæ²»": 4082,
      "æłĩçŃ¾": 4083,
      "å¤ļæł·æĢ§": 4084,
      "çĶŁæ´»æĸ¹å¼ı": 4085,
      "rib": 4086,
      "ï¼īï¼ļ": 4087,
      "Ġanswer": 4088,
      "çļĦåİĨåı²": 4089,
      "çļĦä»£çłģ": 4090,
      "éĢĤçĶ¨äºİ": 4091,
      "Ġmultip": 4092,
      "æĻºèĥ½å®¶å±ħ": 4093,
      "çļĦç²": 4094,
      "åıĳéĢģ": 4095,
      "ustom": 4096,
      "åĪĨæŀĲåĴĮ": 4097,
      "çļĦçłĶç©¶": 4098,
      "Ġfact": 4099,
      "æĦŁè°¢": 4100,
      "çļĦæĥ³": 4101,
      "Ġconsi": 4102,
      "éĿŀå¸¸éĩįè¦ģçļĦ": 4103,
      "éļıæĹ¶": 4104,
      "ç¥ŀç§ĺ": 4105,
      "çĭ¬ç«ĭ": 4106,
      "è½»æĿ¾": 4107,
      "],": 4108,
      "çļĦæŃ¥": 4109,
      "å¹´è½»": 4110,
      "Ġeff": 4111,
      "çļĦæłĩ": 4112,
      "è¿¹": 4113,
      "å°¾": 4114,
      "bin": 4115,
      "éĢĤå½ĵçļĦ": 4116,
      "velo": 4117,
      "herefore": 4118,
      "ĽåĽ´": 4119,
      "Ġposit": 4120,
      "æĸ°é²ľ": 4121,
      "umn": 4122,
      "Ġact": 4123,
      "ize": 4124,
      "ctions": 4125,
      "çĶ¨æĪ·ä½ĵéªĮ": 4126,
      "å®«": 4127,
      "ç¤¾ä¼ļçļĦ": 4128,
      "èĻ«": 4129,
      "è¿Ŀ": 4130,
      "ç³ķ": 4131,
      "å°ıæĺİ": 4132,
      "è¡¨è¾¾å¼ı": 4133,
      "Ġwhile": 4134,
      "łéģĵ": 4135,
      "ost": 4136,
      "æ·±åĪ»": 4137,
      "vert": 4138,
      "Ġmake": 4139,
      "è¹": 4140,
      "çļĦæ¯ı": 4141,
      "ails": 4142,
      "çĤº": 4143,
      "éĢ²": 4144,
      "è¿Ń": 4145,
      "äº§çĶŁäºĨ": 4146,
      "çĶ³è¯·": 4147,
      "èĲ¨": 4148,
      "çĹĩçĬ¶": 4149,
      "çļĦç¬¬": 4150,
      "çī¹èī²": 4151,
      "Ġtable": 4152,
      "è¯·åĳĬè¯īæĪĳ": 4153,
      "æķıæĦŁ": 4154,
      "åŃ¦ä¼ļ": 4155,
      "å¤ıåŃ£": 4156,
      "Ġrefer": 4157,
      "stand": 4158,
      "ä¸Ģç³»åĪĹ": 4159,
      "å½¢è±¡": 4160,
      "åį³ä½¿": 4161,
      "ruct": 4162,
      "çĶļ": 4163,
      "å±ı": 4164,
      "æ°§åĮĸ": 4165,
      "Ġstep": 4166,
      "ç¡®è®¤": 4167,
      "quare": 4168,
      "ä¾¿åĪ©": 4169,
      "åıĤèĢĥ": 4170,
      "åħ³éĶ®è¯į": 4171,
      "ç¬¬ä¸ī": 4172,
      "åħ¬æŃ£": 4173,
      "å·ŀ": 4174,
      "ĠÃ": 4175,
      "å¹¸ç¦ı": 4176,
      "Ġfollowing": 4177,
      "åıįæĺł": 4178,
      "par": 4179,
      "pi": 4180,
      "çªĹ": 4181,
      "é¢ĦæľŁ": 4182,
      "æģ¶": 4183,
      "èĤ¥": 4184,
      "æļĹ": 4185,
      "Ġlangu": 4186,
      "åĵ²": 4187,
      "ohn": 4188,
      "æĢģåº¦": 4189,
      "ser": 4190,
      "èĥ¡": 4191,
      "MO": 4192,
      "200": 4193,
      "éľĢæ±ĤåĴĮ": 4194,
      "è¿Ļæł·çļĦ": 4195,
      "çļĦçŁ¥è¯Ĩ": 4196,
      "Ġperson": 4197,
      "é£ŀè¡Į": 4198,
      "ä¸ĢèĪ¬": 4199,
      "é¢ĨåŁŁçļĦ": 4200,
      "æĹ¶éĹ´åĴĮ": 4201,
      "åºĬ": 4202,
      "æĪĲå°±": 4203,
      "blem": 4204,
      "bash": 4205,
      "çļĦæĬķèµĦ": 4206,
      "è´Łè´£": 4207,
      "80": 4208,
      "åĽ¾çīĩ": 4209,
      "è®¤è¯Ĩ": 4210,
      "Ġz": 4211,
      "Ġtyp": 4212,
      "çļĦæ²ŁéĢļ": 4213,
      "arch": 4214,
      "åĨĮ": 4215,
      "æĸ¹ä¾¿": 4216,
      "é©±": 4217,
      "äººå·¥æĻºèĥ½åľ¨": 4218,
      "nä»¥ä¸Ĭ": 4219,
      "åıĬåħ¶": 4220,
      "å®ŀéĻħåºĶçĶ¨": 4221,
      "æŃ£å¸¸": 4222,
      "ç®Ģæ´ģ": 4223,
      "ĠĠĠĠĠĠĠĠĠĠĠĠĠĠĠ": 4224,
      "è¯·æıĲä¾Ľ": 4225,
      "çĶļèĩ³": 4226,
      "ä¸įéĶĻ": 4227,
      "ä¸ĵå®¶": 4228,
      "çĽ¸åºĶçļĦ": 4229,
      "oud": 4230,
      "åĲĳéĩı": 4231,
      "æ±ī": 4232,
      "å³°": 4233,
      "æĹ¥å¿Ĺ": 4234,
      "Ġassist": 4235,
      "æĶ¿æ²»": 4236,
      "ST": 4237,
      "Ch": 4238,
      "åĩī": 4239,
      "åħ¬åĽŃ": 4240,
      "å®ł": 4241,
      "Ġmodel": 4242,
      "å°½éĩı": 4243,
      "è¯»èĢħ": 4244,
      "åĩĨç¡®æĢ§": 4245,
      "}$": 4246,
      "æĵļ": 4247,
      "å¯¸": 4248,
      "æľĢæĸ°": 4249,
      "æĿ¥èĩª": 4250,
      "Ġtak": 4251,
      "é¥Ń": 4252,
      "Ġgra": 4253,
      "æĿĥéĻĲ": 4254,
      "å¤ªç©º": 4255,
      "å¹³æĸ¹": 4256,
      "å¸ĥå±Ģ": 4257,
      "éº¦": 4258,
      "åįıè®®": 4259,
      "Ġid": 4260,
      "åľ¨äºİ": 4261,
      "Ġgre": 4262,
      "`,": 4263,
      "çļĦæ³ķå¾ĭ": 4264,
      "work": 4265,
      "è¿ĩåİ»": 4266,
      "Ġdat": 4267,
      "çļĦç©": 4268,
      "Ġsa": 4269,
      "dict": 4270,
      "Ġhour": 4271,
      "æĪĲåĪĨ": 4272,
      "æłĩé¢ĺ": 4273,
      "ument": 4274,
      "çļĦè¡Įä¸º": 4275,
      "iel": 4276,
      "ä¿Ŀéļľ": 4277,
      "ression": 4278,
      "çļĦä¸»é¢ĺ": 4279,
      "å®£ä¼ł": 4280,
      "æµģè¡Į": 4281,
      "round": 4282,
      "çİ¯å¢ĥä¸Ń": 4283,
      "æ¯Ľ": 4284,
      "åŃ¤": 4285,
      "æĢ§è´¨": 4286,
      "ç¼ĸç¨ĭè¯Ńè¨Ģ": 4287,
      "å¿ĺ": 4288,
      "Ġreg": 4289,
      "å¹«": 4290,
      "åı¦ä¸Ģä¸ª": 4291,
      "åĴĮæĮĳæĪĺ": 4292,
      "Ġpos": 4293,
      "ç»ıå¸¸": 4294,
      "æįķ": 4295,
      "åĲĮæł·": 4296,
      "rect": 4297,
      "åĳ¨æľŁ": 4298,
      "Ġmain": 4299,
      "çļĦçĭ": 4300,
      "çļĦæĳ": 4301,
      "çĿ£": 4302,
      "äººçī©": 4303,
      "çļ®èĤ¤": 4304,
      "çļĦæ²»çĸĹ": 4305,
      "Ġonly": 4306,
      "éĻĦ": 4307,
      "Ġpr": 4308,
      "verage": 4309,
      "è¿·": 4310,
      "ature": 4311,
      "åĬłéĢŁ": 4312,
      "ix": 4313,
      "Ġsystem": 4314,
      "è¯ŃéŁ³è¯ĨåĪ«": 4315,
      "åĨįçĶŁ": 4316,
      "æ¶ĪèĢĹ": 4317,
      "èµĦéĩĳ": 4318,
      "Ġcontain": 4319,
      "å®Ĺ": 4320,
      "ä¸ŃçļĦåºĶçĶ¨": 4321,
      "æ³³": 4322,
      "åĴĮå®īåħ¨": 4323,
      "è¿Ļä¸įä»ħ": 4324,
      "å¹«åĬ©": 4325,
      "\\\\),": 4326,
      "æĺ¯åĲ¦æľī": 4327,
      "çĽ¸ä¿¡": 4328,
      "è¶³å¤ŁçļĦ": 4329,
      "ç»´çĶŁç´ł": 4330,
      "æ»¤": 4331,
      "äºĪ": 4332,
      "çļĦä¸Ģéĥ¨åĪĨ": 4333,
      "çļĦæĢ»": 4334,
      "çļĦæıĲ": 4335,
      "æĭĮ": 4336,
      "fe": 4337,
      "ĠPro": 4338,
      "æĶ¾åħ¥": 4339,
      "min": 4340,
      "æľīæīĢä¸įåĲĮ": 4341,
      "æĸ¹éĿ¢çļĦ": 4342,
      "è¿ĲèĲ¥": 4343,
      "æľªçŁ¥": 4344,
      "Ġknow": 4345,
      "åģ¶": 4346,
      "Ġno": 4347,
      "ä¸ĸçºª": 4348,
      "Ġserv": 4349,
      "cle": 4350,
      "'t": 4351,
      "è¦ĨçĽĸ": 4352,
      ".\"": 4353,
      "æµıè§Ī": 4354,
      "næľĢåĲİ": 4355,
      "Ġsign": 4356,
      "åŃ¸ç¿Ĵ": 4357,
      "å¼ĢåıĳèĢħ": 4358,
      "çľŁæŃ£": 4359,
      "å®łçī©": 4360,
      "ock": 4361,
      "ä½ĵç³»": 4362,
      "indow": 4363,
      "è¡ĮæĺŁ": 4364,
      "Ġher": 4365,
      "èĿ": 4366,
      "error": 4367,
      "ä¿®å¤į": 4368,
      "ç¾¤ä½ĵ": 4369,
      "çļĦåħĥç´ł": 4370,
      "bo": 4371,
      "åħ·å¤ĩ": 4372,
      "è§ĦèĮĥ": 4373,
      "å°į": 4374,
      "æ°¸": 4375,
      "Ġline": 4376,
      "ç´¯": 4377,
      "ç²¾ç¡®": 4378,
      "è´´": 4379,
      "ink": 4380,
      "èģĬå¤©": 4381,
      "néĢļè¿ĩä¸Ĭè¿°": 4382,
      "ically": 4383,
      "åİļ": 4384,
      "æĽ´å¥½åľ°çĲĨè§£": 4385,
      "åŃĲçļĦ": 4386,
      "è¯įæ±ĩ": 4387,
      "æĹłè®ºæĺ¯": 4388,
      "og": 4389,
      "ning": 4390,
      "éŀ": 4391,
      "è¢ĭ": 4392,
      "ild": 4393,
      "åįł": 4394,
      "å¹ħ": 4395,
      "å±ŀäºİ": 4396,
      "çļĦæ°Ķ": 4397,
      "Ġser": 4398,
      "Ġåĩ½æķ°": 4399,
      "çļĦæ¯Ķ": 4400,
      "çŁ©éĺµ": 4401,
      "è±¡å¾ģ": 4402,
      "æĹ¶ä»£": 4403,
      "å¥¥": 4404,
      "åľ°åĿĢ": 4405,
      "èĮĦ": 4406,
      "æĪ·å¤ĸ": 4407,
      "ec": 4408,
      "ä¸īè§Ĵ": 4409,
      "çŃīå¾ħ": 4410,
      "çļĦéĢīæĭ©": 4411,
      "çļĦå¥½": 4412,
      "åıĹæ¬¢è¿İ": 4413,
      "ãģĹ": 4414,
      "è¯ģæĺİ": 4415,
      "åĢº": 4416,
      "ç§¯æŀģçļĦ": 4417,
      "loy": 4418,
      "çļĦæł¸": 4419,
      "Ġmu": 4420,
      "ient": 4421,
      "å¤ĸéĥ¨": 4422,
      "çī¹åĪ«æĺ¯": 4423,
      "åĪĹåĩº": 4424,
      "çļĦçĽ®æłĩ": 4425,
      "éļ¾ä»¥": 4426,
      "é¹": 4427,
      "ìĿ": 4428,
      "åŃ¦æľ¯": 4429,
      "ced": 4430,
      "çļĦæ±": 4431,
      "Ġelements": 4432,
      "ĠJava": 4433,
      "æĶ¾åľ¨": 4434,
      "Ġlar": 4435,
      "å¼ĥ": 4436,
      "æĺ¯ä¸ŃåĽ½": 4437,
      "åĳ¨åĽ´": 4438,
      "æĽ¿æį¢": 4439,
      "æĳĺ": 4440,
      "æĦŁåħ´è¶£": 4441,
      "tml": 4442,
      "Ġproblem": 4443,
      "ç´¢å¼ķ": 4444,
      "éĺ»": 4445,
      "è¿ĻæĦıåĳ³çĿĢ": 4446,
      "nIf": 4447,
      "æķ°æį®åĴĮ": 4448,
      "line": 4449,
      "å®ļåĪ¶": 4450,
      "Ġtry": 4451,
      "å½¢çļĦ": 4452,
      "ious": 4453,
      "æĦıå¤§åĪ©": 4454,
      "ä¿ĿåŃĺ": 4455,
      "quence": 4456,
      "ãģ¾": 4457,
      "åĴĮåıĳå±ķ": 4458,
      "è¿Ńä»£": 4459,
      "æī°": 4460,
      "å¤§åŃ¦": 4461,
      "als": 4462,
      "æ¸©æļĸ": 4463,
      "ĠĠĠĠĠĠ": 4464,
      "æŃĮæĽ²": 4465,
      "çĶµè§Ĩ": 4466,
      "åĴĮçĲĨè§£": 4467,
      "ä¸ĭçļĦ": 4468,
      "ç±»åĪ«": 4469,
      "24": 4470,
      "æĿĳ": 4471,
      "13": 4472,
      "resent": 4473,
      "ãĢĭãĢģ": 4474,
      "åĴĮå¯¹": 4475,
      "ç§ĳåŃ¦å®¶": 4476,
      "åº¦çļĦ": 4477,
      "Ġhigh": 4478,
      "Ġtest": 4479,
      "Ġoften": 4480,
      "æīĭæ®µ": 4481,
      "åĲĪåĲĮ": 4482,
      "ertain": 4483,
      "é«ĺè´¨éĩı": 4484,
      "ä¸¥æł¼": 4485,
      "çº¿æĢ§": 4486,
      "è¡ĵ": 4487,
      "æ¯ıä¸Ģ": 4488,
      "çļĦæŃ¥éª¤": 4489,
      "ä½¿çĶ¨çļĦ": 4490,
      "åĨħçļĦ": 4491,
      "ower": 4492,
      "old": 4493,
      "è½¬åĮĸ": 4494,
      "Ġ$\\\\": 4495,
      "åĪ©çĽĬ": 4496,
      "æ¡Īä¾ĭ": 4497,
      "çļĦçĹ": 4498,
      "çī©ä½ĵ": 4499,
      "roup": 4500,
      "ç¡¬ä»¶": 4501,
      "æĦŁåıĹåĪ°": 4502,
      "çļĦç¼ĸç¨ĭ": 4503,
      "ä¸ĢçĽ´": 4504,
      "åĿļæĮģ": 4505,
      "è¶ħè¿ĩ": 4506,
      "ä¸ĢåĲį": 4507,
      "path": 4508,
      "Ġpa": 4509,
      "æĦī": 4510,
      "Ġemp": 4511,
      "æ¬£": 4512,
      "ique": 4513,
      "æľĥ": 4514,
      "è§£çŃĶ": 4515,
      "äºĭé¡¹": 4516,
      "æĹ¶å°ļ": 4517,
      "ä¼łéĢĴ": 4518,
      "æĭį": 4519,
      "éĿŀå¸¸éĩįè¦ģ": 4520,
      "ï¼Ł'}]": 4521,
      "æıĲä¾Ľä¸Ģä¸ª": 4522,
      "çļĦæ¸©": 4523,
      "sole": 4524,
      "æĥĬ": 4525,
      "æ¿ĢåĬ±": 4526,
      "éĥ½ä¼ļ": 4527,
      "åĵ²åŃ¦": 4528,
      "ä¹ı": 4529,
      "çĹħæ¯Ĵ": 4530,
      "ç¶": 4531,
      "è§£æŀĲ": 4532,
      "otal": 4533,
      "éĽĨä¸Ń": 4534,
      "ĠæŃ¥éª¤": 4535,
      "ases": 4536,
      "nW": 4537,
      "èķ": 4538,
      "itle": 4539,
      "Ġ```": 4540,
      "_{": 4541,
      "åĴĮæķ°æį®": 4542,
      "çĥ¹é¥ª": 4543,
      "åĴĮä¼ĺåĮĸ": 4544,
      "rame": 4545,
      "ars": 4546,
      "åı¯ä»¥ä¸º": 4547,
      "verse": 4548,
      "èĥ½åĲ¦": 4549,
      "åıįæĢĿ": 4550,
      "èħĲ": 4551,
      "ä¾§": 4552,
      "nè¯·æ³¨æĦı": 4553,
      "æľŁéĹ´": 4554,
      "Ġlength": 4555,
      "ä¸¦": 4556,
      "åħ¼": 4557,
      "ield": 4558,
      "çļĦåıĺåĮĸ": 4559,
      "çłĶåıĳ": 4560,
      "æ°Ķä½ĵ": 4561,
      "æĸĩåŃĹ": 4562,
      "èĢĮæĺ¯": 4563,
      "\\\\[\\": 4564,
      "Ġcase": 4565,
      "æ¹ĸ": 4566,
      "åĦ¿ç«¥": 4567,
      "essage": 4568,
      "Ġens": 4569,
      "æķħéļľ": 4570,
      "næĢ»çļĦæĿ¥è¯´": 4571,
      "åĲ«ä¹ī": 4572,
      "åĨ¬": 4573,
      "âĢĿãĢĤ": 4574,
      "mail": 4575,
      "ç¢į": 4576,
      "Ġstate": 4577,
      "ç»Ļå®ļçļĦ": 4578,
      "åĽłä¸ºå®ĥ": 4579,
      "éł": 4580,
      "æ´¾": 4581,
      "åľ°çĤ¹": 4582,
      "çļĦç©º": 4583,
      "rans": 4584,
      "Ġbased": 4585,
      "åĪĹè¡¨ä¸Ń": 4586,
      "çļĦæĬĢèĥ½": 4587,
      "SON": 4588,
      "æıĲç¤º": 4589,
      "let": 4590,
      "æķ°åĢ¼": 4591,
      "çļĦæ¶": 4592,
      "éĢļå¸¸éľĢè¦ģ": 4593,
      "è¯¦ç»ĨçļĦ": 4594,
      "ä¸ĭéĻį": 4595,
      "Ġend": 4596,
      "å¿ĥçĲĨåģ¥åº·": 4597,
      "Ġë": 4598,
      "ä½¿çĶ¨Python": 4599,
      "velop": 4600,
      "çķħ": 4601,
      "é¥¼": 4602,
      "Ġent": 4603,
      "æķĻå¸Ī": 4604,
      "å°½ç®¡": 4605,
      "Ġcond": 4606,
      "HTML": 4607,
      "gs": 4608,
      "ä¼ĺæĥł": 4609,
      "æĪĳä»¬å°Ĩ": 4610,
      "åĳĪ": 4611,
      "ä»¥æıĲé«ĺ": 4612,
      "ä»ª": 4613,
      "ages": 4614,
      "andas": 4615,
      "èªī": 4616,
      "è¯Ħè®º": 4617,
      "æķ°åĪĹ": 4618,
      "è§Ħå¾ĭ": 4619,
      "Ġ\\\\(\\\\": 4620,
      "å¼±": 4621,
      "çļĦèĥ½åĬĽ": 4622,
      "åĴĮå»ºè®®": 4623,
      "æī¾åĩº": 4624,
      "Ġå¦Ĥæŀľ": 4625,
      "Ġsy": 4626,
      "è¿ľç¨ĭ": 4627,
      "å¢Ļ": 4628,
      "éĥģ": 4629,
      "nN": 4630,
      "çļĦæ¦Ĥå¿µ": 4631,
      "ç§įç±»": 4632,
      "ving": 4633,
      "åĶ¯": 4634,
      "å¿«ä¹Ĳ": 4635,
      "é«ĺçº§": 4636,
      "éĵ¾æİ¥": 4637,
      "ãĢĭãĢģãĢĬ": 4638,
      "TP": 4639,
      "æĢĢ": 4640,
      "IN": 4641,
      "åºĨ": 4642,
      "éĩįè§Ĩ": 4643,
      "çļĦç»ĵæŀľ": 4644,
      "very": 4645,
      "____": 4646,
      "MOSS": 4647,
      "åľ¨ä¸Ģä¸ª": 4648,
      "ming": 4649,
      "Ġ%": 4650,
      "è¿Ľç¨ĭ": 4651,
      "çĽĳç®¡": 4652,
      "çļĦçĿ": 4653,
      "å®ŀä¾ĭ": 4654,
      "atter": 4655,
      "Ġsk": 4656,
      "èĩªä¿¡": 4657,
      "èĴľ": 4658,
      "ç»´æĮģ": 4659,
      "ä½¿çĶ¨äºĨ": 4660,
      "requ": 4661,
      "æ³Ħ": 4662,
      "ãģ«": 4663,
      "left": 4664,
      "éĽĨåĲĪ": 4665,
      "è¿Ļæ®µ": 4666,
      "Ġrandom": 4667,
      "éŀĭ": 4668,
      "ä¸ŃæľĢ": 4669,
      "ç§Ģ": 4670,
      "å®ŀéĻħä¸Ĭ": 4671,
      "è®¤çŁ¥": 4672,
      "çļĦæµģ": 4673,
      "arget": 4674,
      "è¿ĺéľĢè¦ģ": 4675,
      ")^": 4676,
      "èĳĹåĲįçļĦ": 4677,
      "sign": 4678,
      "Ġdirect": 4679,
      "èĭĹ": 4680,
      "pri": 4681,
      "å®ģ": 4682,
      "åį«çĶŁ": 4683,
      "éĴ±": 4684,
      "ä¾µ": 4685,
      "cho": 4686,
      "èĽĭç³ķ": 4687,
      "Ġappro": 4688,
      "åŁºæľ¬çļĦ": 4689,
      "çīĽå¥¶": 4690,
      "çĶ²": 4691,
      "åĳ³éģĵ": 4692,
      "çĶµæ±ł": 4693,
      "æīĢåľ¨": 4694,
      "vent": 4695,
      "è¡¨æ¼Ķ": 4696,
      "çº¿ç¨ĭ": 4697,
      "éķĩ": 4698,
      "éĢīæĭ©åĲĪéĢĤçļĦ": 4699,
      "Ġç¤ºä¾ĭ": 4700,
      "èĢĲå¿ĥ": 4701,
      "è®°ä½ı": 4702,
      "ç´§å¼ł": 4703,
      "çļĦæĭ": 4704,
      "Ġsm": 4705,
      "ential": 4706,
      "Ġorder": 4707,
      "ç£ģ": 4708,
      "ç¬¬ä¸Ģ": 4709,
      "çļĦæł¸å¿ĥ": 4710,
      "æĪĲæŀľ": 4711,
      "èİī": 4712,
      "æ¶µ": 4713,
      "æģĲ": 4714,
      "èĤ´": 4715,
      "å°¤åħ¶æĺ¯": 4716,
      "çļĦåı¯": 4717,
      "åıĺå¾ĹæĽ´åĬł": 4718,
      "Ġsentence": 4719,
      "èĭı": 4720,
      "æĦŁè§ī": 4721,
      "æĺ¯çĶ±": 4722,
      "èĬĤå¥ı": 4723,
      "Ġstr": 4724,
      "çļĦç²¾": 4725,
      "åĺ": 4726,
      "æŃ»": 4727,
      "45": 4728,
      "ĠRe": 4729,
      "æ¯ıæ¬¡": 4730,
      "ç¢º": 4731,
      "nth": 4732,
      "Ġ25": 4733,
      "åĪ¸": 4734,
      "æĸĹ": 4735,
      "ences": 4736,
      "ames": 4737,
      "ç¨³å®ļæĢ§": 4738,
      "å¤±è´¥": 4739,
      "ç¼ĸçłģ": 4740,
      "çĴ": 4741,
      "Ġrespon": 4742,
      "æ¦": 4743,
      "éĿ¢è¯ķ": 4744,
      "ves": 4745,
      "ner": 4746,
      "å¼ķåħ¥": 4747,
      "çļĦæīĭ": 4748,
      "äººæ°ĳ": 4749,
      "çļĦçŁ": 4750,
      "å½¼": 4751,
      "çł´åĿı": 4752,
      "åī²": 4753,
      "èĪ¹": 4754,
      "åĨħå¿ĥ": 4755,
      "åīįæĻ¯": 4756,
      "Ġday": 4757,
      "å¡Ķ": 4758,
      "ç½ª": 4759,
      "è¿Ĳç®Ĺ": 4760,
      "Ġpass": 4761,
      "vol": 4762,
      "ä¸įæĸŃåıĳå±ķ": 4763,
      "çļĦå¤©æ°Ķ": 4764,
      "ç¾İå¥½": 4765,
      "èļ": 4766,
      "åĿĩè¡¡": 4767,
      "æ¸łéģĵ": 4768,
      "è´¦æĪ·": 4769,
      "lif": 4770,
      "Ġmay": 4771,
      "åľ¨å¤ĦçĲĨ": 4772,
      "é¡¾å®¢": 4773,
      "ian": 4774,
      "test": 4775,
      "å·§åħĭ": 4776,
      "è´§å¸ģ": 4777,
      "æ¸¸æ³³": 4778,
      "Ġdetails": 4779,
      "æ¥¼": 4780,
      "å¯¹åºĶ": 4781,
      "èĦ±": 4782,
      "add": 4783,
      "Ġtype": 4784,
      "nB": 4785,
      "æľīçļĦ": 4786,
      "æ¼ı": 4787,
      "ä¿ĿæĬ¤çİ¯å¢ĥ": 4788,
      "lt": 4789,
      "cdot": 4790,
      "çļĦæĶ¯æĮģ": 4791,
      "äººå£«": 4792,
      "è¡¨æĺİ": 4793,
      "'m": 4794,
      "Ġunderstand": 4795,
      "åĸľå¥½": 4796,
      "ä¹³": 4797,
      "çļĦæĥ³æ³ķ": 4798,
      "å¼ºå¤§çļĦ": 4799,
      "çĽ®å½ķ": 4800,
      "¹æŀľ": 4801,
      "des": 4802,
      "å¼¹": 4803,
      "max": 4804,
      "è¿Ľå±ķ": 4805,
      "ä¼¼ä¹İ": 4806,
      "å¤§åŀĭ": 4807,
      "çıį": 4808,
      "éĢĲæŃ¥": 4809,
      "Ġincluding": 4810,
      "ĠX": 4811,
      "\\':": 4812,
      "éĩĬæĶ¾": 4813,
      "ä¼ĺçĤ¹": 4814,
      "å£¤": 4815,
      "çļĦæĽ": 4816,
      "çļĦæİĴ": 4817,
      "æĦŁåĴĮ": 4818,
      "Ġlen": 4819,
      "ä¸įè¶³": 4820,
      "çĽĳçĿ£": 4821,
      "Ġconsider": 4822,
      "Ġmost": 4823,
      "ï¼ĮâĢľ": 4824,
      ")`": 4825,
      "çĪ±å¥½": 4826,
      "uring": 4827,
      "èµĦäº§": 4828,
      "Ġworld": 4829,
      "ood": 4830,
      "17": 4831,
      "99": 4832,
      "è¯»åıĸ": 4833,
      "å¤ļåħĥ": 4834,
      "åħħè¶³": 4835,
      "çŃīåĽłç´ł": 4836,
      "ä»İèĢĮæıĲé«ĺ": 4837,
      "ized": 4838,
      "æľŁæľĽ": 4839,
      "Ġplay": 4840,
      "Ġobject": 4841,
      "çķª": 4842,
      "inu": 4843,
      "cent": 4844,
      "çĥŁ": 4845,
      "Ð»": 4846,
      "ople": 4847,
      "çļĦçĶµå½±": 4848,
      "åŁºéĩĳ": 4849,
      "å¤«": 4850,
      "èĭ¹æŀľ": 4851,
      "åĩºæĿ¥": 4852,
      "ä»¥ä¸ĭæĺ¯ä¸Ģ": 4853,
      "}\\\\)": 4854,
      "Ġca": 4855,
      "Pythonä¸Ń": 4856,
      "çľŁå®ŀ": 4857,
      "éķ¿æĹ¶éĹ´": 4858,
      "åĮ»çĸĹä¿Ŀåģ¥": 4859,
      "æĮĩåįĹ": 4860,
      "æĵİ": 4861,
      "åħĥç´łçļĦ": 4862,
      "å¤ļçļĦ": 4863,
      "gor": 4864,
      "mer": 4865,
      "fic": 4866,
      "ome": 4867,
      "æıĲéĨĴ": 4868,
      "mand": 4869,
      "Ġrun": 4870,
      "æĹ¶çļĦ": 4871,
      "ãĤĭ": 4872,
      "åľŁå£¤": 4873,
      "nfrom": 4874,
      "çļĦæ½": 4875,
      "èĩªè¡Į": 4876,
      "ç»Ħä»¶": 4877,
      "éĶģ": 4878,
      "array": 4879,
      "å¼ķæĵİ": 4880,
      "rror": 4881,
      "Ġlearn": 4882,
      "åĴĮèµĦæºĲ": 4883,
      "äº§åĵģçļĦ": 4884,
      "åı¯èĥ½æĢ§": 4885,
      "Ġvariable": 4886,
      "åı¯åĨįçĶŁ": 4887,
      "åľ¨æľªæĿ¥": 4888,
      "://": 4889,
      "åĪĨè§£": 4890,
      "éĽħ": 4891,
      "éģİ": 4892,
      "å¤ªéĺ³èĥ½": 4893,
      "åĴĮæĶ¯æĮģ": 4894,
      "ĠYou": 4895,
      "ability": 4896,
      "æµªè´¹": 4897,
      "ç»ıè¿ĩ": 4898,
      "ily": 4899,
      "ç·": 4900,
      "çļĦä¸Ģä¸ª": 4901,
      "æĽ´å®¹æĺĵ": 4902,
      "ï¼Ľ\\": 4903,
      "ä¸ªäººçļĦ": 4904,
      "ä¼Ļ": 4905,
      "mit": 4906,
      "çļĦæıı": 4907,
      "çļĦæĻºèĥ½": 4908,
      "æĸĩæĺİ": 4909,
      "ç®ĢåĮĸ": 4910,
      "å¥ĸåĬ±": 4911,
      "è¯º": 4912,
      "çĶŁæĪĲä¸Ģé¦ĸ": 4913,
      "ä¸ĬæľĢ": 4914,
      "æľŁå¾ħ": 4915,
      "oid": 4916,
      "æĻºèĥ½åĮĸ": 4917,
      "çļĦçĿ¡çľł": 4918,
      "di": 4919,
      "åĪļ": 4920,
      "ä½ľèĢħ": 4921,
      "éĩįè¦ģçļĦæĺ¯": 4922,
      "ithm": 4923,
      "nSo": 4924,
      "æµ®": 4925,
      "String": 4926,
      "è§Ĩä¸º": 4927,
      "æīĭæľ¯": 4928,
      "Ġeven": 4929,
      "åĵģè´¨": 4930,
      "ĠQ": 4931,
      "ä¸¤ç§į": 4932,
      "æĭ¼": 4933,
      "èģĮä½į": 4934,
      "è¯·ç»ĻæĪĳ": 4935,
      "çļĦé£Łçī©": 4936,
      "èĬĤæĹ¥": 4937,
      "ç¾İå¥½çļĦ": 4938,
      "è°ĥæŁ¥": 4939,
      "ä¸įä»ħä»ħ": 4940,
      "çŃīå¤ļä¸ª": 4941,
      "å¹¶æıĲä¾Ľ": 4942,
      "ä»¤äºº": 4943,
      "ç¼ºä¹ı": 4944,
      "åħįçĸ«": 4945,
      "ncon": 4946,
      "Ġamount": 4947,
      "è¿ħ": 4948,
      "Ġcorrect": 4949,
      "Ġinsta": 4950,
      "íķ": 4951,
      "è´ŁéĿ¢å½±åĵį": 4952,
      "ç¬¦åı·": 4953,
      "å½±åĥı": 4954,
      "Ġstd": 4955,
      "htt": 4956,
      "çĵ¶": 4957,
      "åĪĨåŃĲ": 4958,
      "Ġä¸Ń": 4959,
      "ug": 4960,
      "RL": 4961,
      "èıľèĤ´": 4962,
      "å¿½": 4963,
      "æĢ»æĺ¯": 4964,
      "çļĦæ¸¸": 4965,
      "åĲ«æľī": 4966,
      "é¸¡èĽĭ": 4967,
      "æ¯ıä¸ªäººéĥ½": 4968,
      "Ġstud": 4969,
      "æĽ¿ä»£": 4970,
      "æª": 4971,
      "Ġhand": 4972,
      "Ġperform": 4973,
      "åĩĨç¡®çļĦ": 4974,
      "éļľç¢į": 4975,
      "å°½åı¯èĥ½": 4976,
      "çĶ¨æĪ·çļĦ": 4977,
      "PU": 4978,
      "ç²¾åĩĨ": 4979,
      "åįĸ": 4980,
      "ä¸įç¡®å®ļ": 4981,
      "é½": 4982,
      "çļĦæĮĩå¯¼": 4983,
      "æİ¥è§¦": 4984,
      "çľĭèµ·æĿ¥": 4985,
      "æĿĥåĪ©": 4986,
      "Pro": 4987,
      "Ġread": 4988,
      "ä»°": 4989,
      "ä¸ªä½ĵ": 4990,
      "Ġ<<": 4991,
      "èĩªä¸»": 4992,
      "å±Ĥæ¬¡": 4993,
      "å¿ĥæĢģ": 4994,
      "åħĭæľį": 4995,
      "è´¨éĩıåĴĮ": 4996,
      "è¿ĲçĶ¨": 4997,
      "æ©Ł": 4998,
      "Ġtri": 4999,
      "Ġpublic": 5000,
      "å¤§å®¶": 5001,
      "Web": 5002,
      "ven": 5003,
      "NA": 5004,
      "ä¸įä»ħèĥ½å¤Ł": 5005,
      "èĢ³": 5006,
      "åı¯ä»¥éĢīæĭ©": 5007,
      "é¸£": 5008,
      "å¤§çº¦": 5009,
      "br": 5010,
      "print": 5011,
      "åľ¨ä¸Ģèµ·": 5012,
      "æŀĦæĪĲ": 5013,
      "æģĴ": 5014,
      "ets": 5015,
      "Ġlanguage": 5016,
      "ç§ĳå¹»": 5017,
      "èĩªèº«": 5018,
      "å®¤åĨħ": 5019,
      "å®¹åĻ¨": 5020,
      "Ġconst": 5021,
      "ç«ĭåį³": 5022,
      "åĴĮä½¿çĶ¨": 5023,
      "çļĦçĪ±": 5024,
      "Ġwords": 5025,
      "Ġplease": 5026,
      "éĿ¢çļĦ": 5027,
      "ek": 5028,
      "alle": 5029,
      "ãģ¯": 5030,
      "æŀ¶æŀĦ": 5031,
      "ç¿»è¯ĳæĪĲ": 5032,
      "èĥ½åĬĽåĴĮ": 5033,
      "é£ŁçĶ¨": 5034,
      "åģ¥åº·é¥®é£Ł": 5035,
      "æĭĽ": 5036,
      "Ġ50": 5037,
      "ä½¿åħ¶": 5038,
      "Ġcommon": 5039,
      "éº»": 5040,
      "çĽ®çļĦåľ°": 5041,
      "$,": 5042,
      "AB": 5043,
      "éĿ¢ä¸Ĭ": 5044,
      "Ġbre": 5045,
      "èľľ": 5046,
      "ç§Ł": 5047,
      "åİĺ": 5048,
      "äº§ä¸ļ": 5049,
      "Ġoutput": 5050,
      "sql": 5051,
      "odel": 5052,
      "åı¯ä»¥åĩıå°ĳ": 5053,
      "Ġtech": 5054,
      "é¢ĦæĬ¥": 5055,
      "éĿ¢åĮħ": 5056,
      "é¢Ĺ": 5057,
      "åĢŁ": 5058,
      "å¿ł": 5059,
      "çļĦç¥": 5060,
      "å®¡æŁ¥": 5061,
      "çļĦæ½ľ": 5062,
      "èĴ¸": 5063,
      "aly": 5064,
      "å®ŀä½ĵ": 5065,
      "ren": 5066,
      "SE": 5067,
      "ency": 5068,
      "ç»ĵè®º": 5069,
      "æľīè®¸å¤ļ": 5070,
      "à¹": 5071,
      "åħħæ»¡äºĨ": 5072,
      "ä¹ĭéĹ´çļĦåħ³ç³»": 5073,
      "ä»¥ä¸ĭæŃ¥éª¤": 5074,
      "å¯¿": 5075,
      "æŁĲç§į": 5076,
      "åľ¨ä½¿çĶ¨": 5077,
      "èº«å¿ĥ": 5078,
      "çļĦçĬ": 5079,
      "æįŁå¤±": 5080,
      "é©±åĬ¨": 5081,
      "Ġ\"\"": 5082,
      "ãĥ¼": 5083,
      "æĽ´å¥½åľ°äºĨè§£": 5084,
      "âĢĿãĢĤ\\": 5085,
      "time": 5086,
      "å¤§åľ°": 5087,
      "éĢĴå½Ĵ": 5088,
      "è°ĥèĬĤ": 5089,
      "å·§åħĭåĬĽ": 5090,
      "è°ĥåĳ³": 5091,
      "Ġdig": 5092,
      ":\",": 5093,
      "utes": 5094,
      "çº¤": 5095,
      "æĦŁåĻ¨": 5096,
      "å§¿": 5097,
      "å¤įæĿĤåº¦": 5098,
      "å¤§èĩªçĦ¶": 5099,
      "æıĲä¾ĽçļĦ": 5100,
      "å®īåħ¨åĴĮ": 5101,
      "ta": 5102,
      "æĮĩå®ļ": 5103,
      "Ġ&": 5104,
      "ins": 5105,
      "æĻ¯çĤ¹": 5106,
      "áº": 5107,
      "html": 5108,
      "çļĦåĲĮæĹ¶": 5109,
      "åĲĪæ³ķ": 5110,
      "å®ĹæķĻ": 5111,
      "ons": 5112,
      "ç¡®ä¿ĿæīĢæľī": 5113,
      "æ¬£èµı": 5114,
      "cs": 5115,
      "åĴĮæľįåĬ¡": 5116,
      "çŃīæĬĢæľ¯": 5117,
      "åħŃ": 5118,
      "æ¾": 5119,
      "æ±Ł": 5120,
      "åĵªç§į": 5121,
      "æł·çļĦ": 5122,
      "å¤§æ°Ķ": 5123,
      "è¿Ĳè¾ĵ": 5124,
      "æĽ´é«ĺæķĪ": 5125,
      "ä¾ĭåŃĲä¸Ń": 5126,
      "æľ¬ä¹¦": 5127,
      "è¿Ļæĺ¯ä¸Ģ": 5128,
      "ä¾¿æį·": 5129,
      "åĨĴéĻ©": 5130,
      "çİ¯å¢ĥæ±¡æŁĵ": 5131,
      "èıĮ": 5132,
      "ody": 5133,
      "çĪ¶": 5134,
      "åĪºæ¿Ģ": 5135,
      "çļĦæľºä¼ļ": 5136,
      "ç»ķ": 5137,
      "the": 5138,
      "å±ıå¹ķ": 5139,
      "å¾ĹåĪ°äºĨ": 5140,
      "åķı": 5141,
      "ural": 5142,
      "æĲħ": 5143,
      "Ġve": 5144,
      "ä¸Ģåıª": 5145,
      "Ġsame": 5146,
      "ä¸ĵä¸ļçļĦ": 5147,
      "ç¾İåħĥ": 5148,
      "Ġsecond": 5149,
      "å¹´çļĦ": 5150,
      "è¿ŀç»Ń": 5151,
      "Ġway": 5152,
      "Ġver": 5153,
      "è¹Ī": 5154,
      "Ġright": 5155,
      "åį±éĻ©": 5156,
      "éª¨": 5157,
      "Ġleft": 5158,
      "é«Ķ": 5159,
      "æ¶Īæģ¯": 5160,
      "Ġ16": 5161,
      "ï¼ģ'}]": 5162,
      "å·¨å¤§": 5163,
      "çķªèĮĦ": 5164,
      "æł¸å¿ĥ": 5165,
      "éŃĶæ³ķ": 5166,
      "ä¼łæĦŁåĻ¨": 5167,
      "ç³»ç»Łä¸Ń": 5168,
      "æĥħèĬĤ": 5169,
      "åı¯èĥ½æľī": 5170,
      "Ġdevelop": 5171,
      "pport": 5172,
      "ãģĮ": 5173,
      "itial": 5174,
      "éªĳ": 5175,
      "æķ¸æĵļ": 5176,
      "Ġhere": 5177,
      "æķĻèĤ²åĴĮ": 5178,
      "Ġnp": 5179,
      "ä¸ºæĪĳ": 5180,
      "plot": 5181,
      "å¤ĩä»½": 5182,
      "æıĲåīį": 5183,
      "èĪŀè¹Ī": 5184,
      "avas": 5185,
      "èĢĥèĻĳåĪ°": 5186,
      "ĠCl": 5187,
      "åĩºäºĨ": 5188,
      "è´Ŀ": 5189,
      "æĪĳå¾Ī": 5190,
      "èĻļæĭŁçİ°å®ŀ": 5191,
      "çı¾": 5192,
      "è¯ģæį®": 5193,
      "nåħ¶æ¬¡": 5194,
      "åı¯ä»¥å°Ĩ": 5195,
      "æľ¬èº«": 5196,
      "æīĺ": 5197,
      "class": 5198,
      "ula": 5199,
      "åĶ¯ä¸Ģ": 5200,
      "å®ĥä»¬åľ¨": 5201,
      "æľīè¶£çļĦ": 5202,
      "ern": 5203,
      "number": 5204,
      "play": 5205,
      "Ġorig": 5206,
      "åıĮæĸ¹": 5207,
      "ä»¥åħ¶": 5208,
      "èĦı": 5209,
      "atch": 5210,
      "å¼ķåıĳ": 5211,
      "éĩĳé¢Ŀ": 5212,
      "æľĢé«ĺ": 5213,
      "èģĺ": 5214,
      "ote": 5215,
      "åĽ¾å½¢": 5216,
      "avascript": 5217,
      "ull": 5218,
      "åħ¼å®¹": 5219,
      "èĮĥåĽ´åĨħ": 5220,
      "åĽŀå½Ĵ": 5221,
      "è·ĥ": 5222,
      "åıªæĺ¯": 5223,
      "æľĹ": 5224,
      "æĸ¼": 5225,
      "åĽ¢éĺŁåĲĪä½ľ": 5226,
      "åģıè§ģ": 5227,
      "Ġcomplex": 5228,
      "å¿Ļ": 5229,
      "èħ¿": 5230,
      "éĹª": 5231,
      "è´·": 5232,
      "æĲħæĭĮ": 5233,
      "æĪĳä¸ºæĤ¨": 5234,
      "Ġsquare": 5235,
      "ache": 5236,
      "åĶ±": 5237,
      "Ar": 5238,
      "åĲ¯åĬ¨": 5239,
      "çļĦæ¶Ī": 5240,
      "Ġback": 5241,
      "åĹ": 5242,
      "ä¼Ļä¼´": 5243,
      "ied": 5244,
      "åī¯": 5245,
      "è·Łè¸ª": 5246,
      "åĲĪè§Ħ": 5247,
      "Ġlog": 5248,
      "èĢĥè¯ķ": 5249,
      "Ġsimple": 5250,
      "ctor": 5251,
      "Google": 5252,
      "lit": 5253,
      "ä½łä»¬": 5254,
      "imal": 5255,
      "è¿ĻåĮħæĭ¬": 5256,
      "ç§Ĵ": 5257,
      "çŃīéĹ®é¢ĺ": 5258,
      "å¦Ļ": 5259,
      "Ġopt": 5260,
      "ä¼łç»ŁçļĦ": 5261,
      "Ġ:": 5262,
      "ational": 5263,
      "any": 5264,
      "ware": 5265,
      "åĴĮéľĢæ±Ĥ": 5266,
      "é¡Į": 5267,
      "ãģ§": 5268,
      "çī©çļĦ": 5269,
      "Ø§": 5270,
      "orm": 5271,
      "nTo": 5272,
      "æľĢå¥½": 5273,
      "çļĦæĵ": 5274,
      "æĦŁæŁĵ": 5275,
      "æľĢæĸ°çļĦ": 5276,
      "åıī": 5277,
      "è¿Ľè¡Įè°ĥæķ´": 5278,
      "ĠWe": 5279,
      "ãĢĤ\"}]": 5280,
      "atic": 5281,
      "ç²Ĵ": 5282,
      "å·²çŁ¥": 5283,
      "angle": 5284,
      "æĹłäºº": 5285,
      "é»ĳæ´ŀ": 5286,
      "ĠCon": 5287,
      "ĠAPI": 5288,
      "åĪĿå§ĭåĮĸ": 5289,
      "æĪĳè®¤ä¸º": 5290,
      "å¹¶å°Ĩ": 5291,
      "ç¡®ä¿Ŀåľ¨": 5292,
      "æıĴåħ¥": 5293,
      "å®ŀéĻħåºĶçĶ¨ä¸Ń": 5294,
      "äººçĶŁ": 5295,
      "è¿Ļä¸¤ä¸ª": 5296,
      "æľīæ²¡æľī": 5297,
      "æ°Ķæ¸©": 5298,
      "Ġrequire": 5299,
      "ä¸ĵæ³¨äºİ": 5300,
      "ä¸Ģæ¬¾": 5301,
      "nTherefore": 5302,
      "å¯¹äººç±»": 5303,
      "åŃĹæ®µ": 5304,
      "ä¹Łæľī": 5305,
      "åħīçº¿": 5306,
      "åĩºè¡Į": 5307,
      "javascript": 5308,
      "å°ºå¯¸": 5309,
      "çļĦéŁ³ä¹Ĳ": 5310,
      "ãģĦ": 5311,
      "æ¡Į": 5312,
      "çļĦæ¨¡åŀĭ": 5313,
      "Ġreturns": 5314,
      "Ġtakes": 5315,
      "Ġweb": 5316,
      "åĴĮæĬĢæľ¯": 5317,
      "ä¸ĭéĿ¢æĺ¯ä¸Ģä¸ª": 5318,
      "be": 5319,
      "åīª": 5320,
      "Ġallow": 5321,
      "23": 5322,
      "loye": 5323,
      "ined": 5324,
      "çļĦæ¬": 5325,
      "Ġbeen": 5326,
      "Ġpeople": 5327,
      "ä¸ĭè½½": 5328,
      "æľµ": 5329,
      "æıĲé«ĺäºĨ": 5330,
      "Ġpartic": 5331,
      "åı¯åĨįçĶŁèĥ½æºĲ": 5332,
      "çİī": 5333,
      "ream": 5334,
      "çĿ¡": 5335,
      "éĴ®": 5336,
      "ä¿¡çĶ¨": 5337,
      "åīįå¾Ģ": 5338,
      "å±ħæ°ĳ": 5339,
      "pre": 5340,
      "åı¯èĥ½åľ¨": 5341,
      "Ġè®¡ç®Ĺ": 5342,
      "æķ°æį®è¿Ľè¡Į": 5343,
      "sive": 5344,
      "éĩįéĩı": 5345,
      "è®ºæĸĩ": 5346,
      "åıĺæļĸ": 5347,
      "æİĴåĪĹ": 5348,
      "ä¹¡": 5349,
      "Ġag": 5350,
      "çĶµè¯Ŀ": 5351,
      "Error": 5352,
      "Ġafter": 5353,
      "ä¸ģ": 5354,
      "ana": 5355,
      "æ£Ĵ": 5356,
      "è¿Ļé¦ĸ": 5357,
      "åī©": 5358,
      "åįļçī©": 5359,
      "ãģª": 5360,
      "é¢ĨåŁŁä¸Ń": 5361,
      "çĤ¸": 5362,
      "é¡¿": 5363,
      "æĿ¥è®¡ç®Ĺ": 5364,
      "æĹłéĻĲ": 5365,
      "ç»ĵæŀĦåĴĮ": 5366,
      "åĭĩæ°Ķ": 5367,
      "çļĦæķ°éĩı": 5368,
      "èıľåįķ": 5369,
      "çĸ«èĭĹ": 5370,
      "åı¯ä»¥ä»İ": 5371,
      "æĭ¿": 5372,
      "næŃ¤å¤ĸ": 5373,
      "çĶµåŃĲéĤ®ä»¶": 5374,
      "åĳĪçİ°": 5375,
      "æĩī": 5376,
      "Ġfeel": 5377,
      "John": 5378,
      "of": 5379,
      "æĥ³æ³ķ": 5380,
      "Ġexper": 5381,
      "å¤§æķ°æį®": 5382,
      "ä¸Ģå®ļçļĦ": 5383,
      "lock": 5384,
      "å®¢æľį": 5385,
      "æİ¥åı£": 5386,
      "çļĦæııè¿°": 5387,
      "na": 5388,
      "æĺŁçĲĥ": 5389,
      "ä¸įéľĢè¦ģ": 5390,
      "åħ³éĹŃ": 5391,
      "ç¼ĺ": 5392,
      "æĪĳä»¬åı¯ä»¥ä½¿çĶ¨": 5393,
      "çº¢èī²": 5394,
      "æĪĳæĥ³çŁ¥éģĵ": 5395,
      "ç½ĳé¡µ": 5396,
      "500": 5397,
      "å¥¹çļĦ": 5398,
      "åĬ¨çĶ»": 5399,
      "å¤©ç©º": 5400,
      "è½»è½»": 5401,
      "indows": 5402,
      "çĺ": 5403,
      "èĢģå¸Ī": 5404,
      "èį£": 5405,
      "å½¼æŃ¤": 5406,
      "åĩĨç¡®æĢ§åĴĮ": 5407,
      "å·¦åı³": 5408,
      "çļĦåĬŁèĥ½": 5409,
      "è³ĩ": 5410,
      "çĶ¨æĢ§": 5411,
      "lish": 5412,
      "nçĦ¶èĢĮ": 5413,
      "çī©æµģ": 5414,
      "é¥®æĸĻ": 5415,
      "RE": 5416,
      "ä½ĵéĩį": 5417,
      "å¤§è§Ħæ¨¡": 5418,
      "å¾Īå¥½": 5419,
      "Ġfil": 5420,
      "çĸ²": 5421,
      "çļĦä½įç½®": 5422,
      "åĮºåĪ«": 5423,
      "éĴ¥": 5424,
      "æĪ¿éĹ´": 5425,
      "çļĦæĵįä½ľ": 5426,
      "æıĲäº¤": 5427,
      "çĻĮ": 5428,
      "])\\": 5429,
      "è¾ĥä½İ": 5430,
      "å¹¿æ³ĽçļĦåºĶçĶ¨": 5431,
      "ric": 5432,
      "çļĦæĶ¶": 5433,
      "lan": 5434,
      "é¢Ħå¤ĦçĲĨ": 5435,
      "néļıçĿĢ": 5436,
      "åı¤èĢģ": 5437,
      "Ġrow": 5438,
      "ather": 5439,
      "Ġvi": 5440,
      "åŃ¤çĭ¬": 5441,
      "çļĦæĸĩåĮĸ": 5442,
      "çļĦäº§åĵģ": 5443,
      "å¯¹æīĭ": 5444,
      "åĪ°è¾¾": 5445,
      "è¿ĩæ»¤": 5446,
      "å¼ºåº¦": 5447,
      "çŁ¿": 5448,
      "åįıè°ĥ": 5449,
      "OS": 5450,
      "çŃĽ": 5451,
      "Ġ+=": 5452,
      "å±ķç¤ºäºĨ": 5453,
      "...": 5454,
      "nå¦Ĥæŀľ": 5455,
      "da": 5456,
      "ç»Ļä½ł": 5457,
      "ĠSQL": 5458,
      "çĿĽ": 5459,
      "æ¬¡æķ°": 5460,
      "çļĦæİªæĸ½": 5461,
      "ï¼Į\"": 5462,
      "åĮħå®¹": 5463,
      "tract": 5464,
      "ä¸ĢäºĽåħ³äºİ": 5465,
      "çļĦåİŁåĽł": 5466,
      "çº¤ç»´": 5467,
      "åľ¨æŁĲäºĽæĥħåĨµä¸ĭ": 5468,
      "éļĲç§ģä¿ĿæĬ¤": 5469,
      "ting": 5470,
      "yn": 5471,
      "ä¸ºä½ł": 5472,
      "Ġdeterm": 5473,
      "LECT": 5474,
      "My": 5475,
      "éĿŀå¸¸æľī": 5476,
      "è¿ħéĢŁ": 5477,
      "Ġæķ°æį®": 5478,
      "åľ°ä½į": 5479,
      "æĺ¯å¦Ĥä½ķ": 5480,
      "è¾ĥé«ĺ": 5481,
      "Â°": 5482,
      "æ¢¯": 5483,
      "Ġpossible": 5484,
      "Ġmeans": 5485,
      "æµıè§ĪåĻ¨": 5486,
      "åĲİç»Ń": 5487,
      "length": 5488,
      "æ¸ħæ´Ĺ": 5489,
      "ä¼ĺç§Ģ": 5490,
      "ç¼ĸåĨĻä¸Ģä¸ª": 5491,
      "Ġhours": 5492,
      "ality": 5493,
      "èµĦæºĲçļĦ": 5494,
      "å¹³åĿĩåĢ¼": 5495,
      "åľºåĲĪ": 5496,
      "æĽ´å¿«": 5497,
      "Data": 5498,
      "ç¨®": 5499,
      "---": 5500,
      "åĴĮä¸į": 5501,
      "å·¥èīº": 5502,
      "éĸĵ": 5503,
      "åĮħåĲ«äºĨ": 5504,
      "åı¯ä»¥å°Ŀè¯ķ": 5505,
      "Ġwithout": 5506,
      "ãģ¾ãģĻ": 5507,
      "åŃ¦èĢħ": 5508,
      "å£®": 5509,
      "å¤ıæĹ¥": 5510,
      "æ¢¦æĥ³": 5511,
      "å®ľ": 5512,
      "ç§ĳæĬĢçļĦ": 5513,
      "ä¿¡æģ¯çļĦ": 5514,
      "Ġmean": 5515,
      "åĨįæ¬¡": 5516,
      "éģĵè·¯": 5517,
      "æĽ¾": 5518,
      "æ¯Ķä¾ĭ": 5519,
      "omp": 5520,
      "âĢĶâĢĶ": 5521,
      "èĬĤèĥ½": 5522,
      "ä¸İåħ¶ä»ĸ": 5523,
      "èĬĤçº¦": 5524,
      "çļĦæĥħç»ª": 5525,
      "Ã¡": 5526,
      "å»ºè®®æĤ¨": 5527,
      "Ġimportant": 5528,
      "Ġref": 5529,
      "ä¹Łåı¯èĥ½": 5530,
      "Ġcomput": 5531,
      "äº¤æį¢": 5532,
      "çļĦçģµ": 5533,
      "Ġarea": 5534,
      "ĠæĪĸ": 5535,
      "èĤº": 5536,
      "è®©ä½ł": 5537,
      "çļĦæŃĮ": 5538,
      "ä»¥åıĬå¯¹": 5539,
      "ç®¡çĲĨåĴĮ": 5540,
      "åı¯ä»¥è¢«": 5541,
      "æ·±åĳ¼åĲ¸": 5542,
      "éľĢè¦ģåľ¨": 5543,
      "æ·±è¿ľçļĦå½±åĵį": 5544,
      "ä¼¤å®³": 5545,
      "90": 5546,
      "Ġthree": 5547,
      "è®¾è®¡ä¸Ģä¸ª": 5548,
      "Ġscript": 5549,
      "ROM": 5550,
      "Ġquestion": 5551,
      "åĻª": 5552,
      "ä¸Ģæł·": 5553,
      "çļĦä¸»": 5554,
      "æĬ±": 5555,
      "æ³¨åĨĮ": 5556,
      "Ġinteger": 5557,
      "Ġrequest": 5558,
      "ä»¥éĢĤåºĶ": 5559,
      "çļĦéķ¿åº¦": 5560,
      "Ġerror": 5561,
      "åĴĮåŃ¦ä¹ł": 5562,
      "å¼ķçĶ¨": 5563,
      "æĸ¹æ³ķæĿ¥": 5564,
      "æĳĺè¦ģ": 5565,
      "gre": 5566,
      "æĮīéĴ®": 5567,
      "éĢīæĭ©ä¸Ģä¸ª": 5568,
      "imum": 5569,
      "åĲ¸æĶ¶": 5570,
      "è·¯çº¿": 5571,
      "è®¾è®¡åĴĮ": 5572,
      "äºĶä¸ª": 5573,
      "æľįåĬ¡çļĦ": 5574,
      "çģ¾å®³": 5575,
      "è¯ĬæĸŃåĴĮæ²»çĸĹ": 5576,
      "çĬ¬": 5577,
      "è¡Ĺ": 5578,
      "random": 5579,
      "å¿ĥçģµ": 5580,
      "ä»¿ä½Ľ": 5581,
      "Ñĥ": 5582,
      "æľ¬åľ°": 5583,
      "è¯¢éĹ®": 5584,
      "ract": 5585,
      "ä½ĵèĤ²": 5586,
      "æĤ¦": 5587,
      "æµĭéĩı": 5588,
      "æĲº": 5589,
      ":**\\": 5590,
      "Ġproper": 5591,
      "çļĦçĬ¶": 5592,
      "å¼ķå¯¼": 5593,
      "æķ¢": 5594,
      "å·Ŀ": 5595,
      "ãģ¨": 5596,
      "å®ģéĿĻ": 5597,
      "çļĦæĶ¿": 5598,
      "Ġformula": 5599,
      "mon": 5600,
      "çļĦæĻ¯": 5601,
      "Ġinclude": 5602,
      "åŀĥåľ¾åĪĨç±»": 5603,
      "ä¸Ĭæµ·": 5604,
      "åı¯ä»¥å¸®åĬ©æĪĳä»¬": 5605,
      "æľīéĻĲ": 5606,
      "ä¸Ģå¤©": 5607,
      "ä½ľä¸ºä¸Ģä¸ª": 5608,
      "èį·": 5609,
      "è´¸": 5610,
      "example": 5611,
      "æĪĳåľ¨": 5612,
      "ä»Ģä¹Īæĺ¯": 5613,
      "çļĦæŁ": 5614,
      "éĻĪ": 5615,
      "æ³¨æĦıåĬĽ": 5616,
      "çķ¶": 5617,
      "åĢį": 5618,
      "å¡ŀ": 5619,
      "æ°ı": 5620,
      "nC": 5621,
      "ton": 5622,
      "æµģéĩı": 5623,
      "--------": 5624,
      "Ġcustom": 5625,
      "idth": 5626,
      "ä¸Ńä½¿çĶ¨": 5627,
      "ness": 5628,
      "ç¤¼çī©": 5629,
      "æĥ³è±¡": 5630,
      "Ġart": 5631,
      "jo": 5632,
      "åı¯è§Ĩ": 5633,
      "ä¹Łèĥ½": 5634,
      "alth": 5635,
      "ä¼łç»ŁæĸĩåĮĸ": 5636,
      "();\\": 5637,
      "åħĪè¿Ľ": 5638,
      "è¿ĽåĪ¶": 5639,
      "æĳ©": 5640,
      "Ġcharacter": 5641,
      "åĩĿ": 5642,
      "ç½ļ": 5643,
      "å°¿": 5644,
      "Ġapplic": 5645,
      "ç«ŀäºīåĬĽ": 5646,
      "è¿ĻäºĽä¿¡æģ¯": 5647,
      "èº«ä½ĵåģ¥åº·": 5648,
      "åľ¨Pythonä¸Ń": 5649,
      "éĢļçŁ¥": 5650,
      "What": 5651,
      "lower": 5652,
      "Ġvarious": 5653,
      "åĶĲ": 5654,
      "SV": 5655,
      "çļĦæ¡": 5656,
      "æľºåĻ¨åŃ¦ä¹łç®Ĺæ³ķ": 5657,
      "æĺ¯å¤ļå°ĳ": 5658,
      "æĬĢè¡ĵ": 5659,
      "éĩįçĤ¹": 5660,
      "æĴ°": 5661,
      "åĪ¶åº¦": 5662,
      "21": 5663,
      "ëĭ": 5664,
      "æĶ¶çĽĬ": 5665,
      "index": 5666,
      "å¤§èĦĳ": 5667,
      "åľ£": 5668,
      "åİ¨": 5669,
      "çº½": 5670,
      "åĪĩæĪĲ": 5671,
      "Ġyears": 5672,
      "éĽ·": 5673,
      "è®¤è¯ģ": 5674,
      "åłĤ": 5675,
      "æĹ¶åħī": 5676,
      "æ³ķå¾ĭæ³ķè§Ħ": 5677,
      "åĴĮæĹ¶éĹ´": 5678,
      "éľĩ": 5679,
      "ä½ĵç§¯": 5680,
      "æ»¡æĦıåº¦": 5681,
      "Ġgu": 5682,
      "ç»ĦæĪĲéĥ¨åĪĨ": 5683,
      "æĽ´åĩĨç¡®åľ°": 5684,
      "Ġconvert": 5685,
      "ĠHe": 5686,
      "`ï¼ļ": 5687,
      "ä»Ķ": 5688,
      "èĵĿèī²": 5689,
      "äººåı£": 5690,
      "port": 5691,
      "å½ĵä½ł": 5692,
      "æĬĳ": 5693,
      "ä½ĵçİ°äºĨ": 5694,
      "itional": 5695,
      "cause": 5696,
      "sort": 5697,
      "åħ¬éĩĮ": 5698,
      "åĸľæ¬¢çļĦ": 5699,
      "IP": 5700,
      "Given": 5701,
      "nHere": 5702,
      "æķ°åŃĹåĮĸ": 5703,
      "çıł": 5704,
      "sing": 5705,
      "è°ľ": 5706,
      "new": 5707,
      "ose": 5708,
      "Ġcharacters": 5709,
      "é¢Ŀå¤ĸçļĦ": 5710,
      "æĪĳä»¬çļĦçĶŁæ´»": 5711,
      "Ġinstall": 5712,
      "å¹¶åıĳ": 5713,
      "æİ¨çĲĨ": 5714,
      "çļĦè¯¦ç»Ĩ": 5715,
      "è¿Ļåı¥è¯Ŀ": 5716,
      "èĦ¸": 5717,
      "éľĢè¦ģæ³¨æĦıçļĦæĺ¯": 5718,
      "æ¥Ń": 5719,
      "ç¼ĵåŃĺ": 5720,
      "part": 5721,
      "çļĦæ£": 5722,
      "nL": 5723,
      "èĦī": 5724,
      "ä»İæĸĩç«łä¸ŃæıĲåıĸ": 5725,
      "äºĭå®ŀ": 5726,
      "å¤ļæķ°": 5727,
      "à¤": 5728,
      "AP": 5729,
      "Ġsolve": 5730,
      "ç¢İ": 5731,
      "çļĦç¤¾ä¼ļ": 5732,
      "Ġlead": 5733,
      "Cl": 5734,
      "thing": 5735,
      "é»İ": 5736,
      "è¿ĩäºİ": 5737,
      "å¼ºå¤§": 5738,
      "Ġmem": 5739,
      "Ġmed": 5740,
      "NT": 5741,
      "Ġprovided": 5742,
      "nä¸ºäºĨ": 5743,
      "æľīä»»ä½ķ": 5744,
      "åĲĪå¹¶": 5745,
      "æĽ´ä¸º": 5746,
      "å±ĭ": 5747,
      "')\\": 5748,
      "1000": 5749,
      "çļĦä¸ĢäºĽ": 5750,
      "}\\\\]\\": 5751,
      "æĹ¥å¸¸çĶŁæ´»ä¸Ń": 5752,
      "å¿łè¯ļ": 5753,
      "Ġincre": 5754,
      "çļĦçĶŁæ´»æĸ¹å¼ı": 5755,
      "çļĦæĶ¹": 5756,
      "Ġ\"\"\"\\": 5757,
      "æĵįä½ľç³»ç»Ł": 5758,
      "Ġâ": 5759,
      "éħĴåºĹ": 5760,
      "çļĦæ¼": 5761,
      "æ·¡": 5762,
      "Ġlong": 5763,
      "åįļçī©é¦Ĩ": 5764,
      "ä¸Ģä¸ªäºº": 5765,
      "çļĦèĩªçĦ¶": 5766,
      "åı¦ä¸Ģ": 5767,
      "è¾ĵåħ¥çļĦ": 5768,
      "åħ¨çĲĥåıĺæļĸ": 5769,
      "æĪĺçķ¥": 5770,
      "Ġfound": 5771,
      "åĲĪçī©": 5772,
      "Ġsignific": 5773,
      "è°Ĭ": 5774,
      "æĽ´æľīæķĪåľ°": 5775,
      "sions": 5776,
      "çļĦæ¸ħ": 5777,
      "æĪĳä»¬é¦ĸåħĪ": 5778,
      "äººéĻħ": 5779,
      "çļĦçĸ": 5780,
      "çĸ«æĥħ": 5781,
      "è§Ĩè§Ĵ": 5782,
      "Ġsc": 5783,
      "Ġexpression": 5784,
      "åĴĮæĥħæĦŁ": 5785,
      "Ġtoday": 5786,
      "æ²¿": 5787,
      "bel": 5788,
      "éĩİçĶŁ": 5789,
      "å´": 5790,
      "Ġdesign": 5791,
      "Ġinvol": 5792,
      "çĶŁæ´»çļĦ": 5793,
      "çĭĹçĭĹ": 5794,
      "][": 5795,
      "Int": 5796,
      "è´¸æĺĵ": 5797,
      "çŁ¥åĲį": 5798,
      "åıĸä»£": 5799,
      "Ġcontent": 5800,
      "åİ»éĻ¤": 5801,
      "Ñĭ": 5802,
      "æŀģç«¯": 5803,
      "ches": 5804,
      "çļĦæ¸¸æĪı": 5805,
      "iction": 5806,
      "(\\\\": 5807,
      "æĬķèµĦèĢħ": 5808,
      "éĢ²è¡Į": 5809,
      "Ġdist": 5810,
      "lice": 5811,
      "éĩĳå±ŀ": 5812,
      "ä½łå¯¹": 5813,
      "éĢļå¸¸åľ¨": 5814,
      "å®ļä¹īäºĨä¸Ģä¸ª": 5815,
      "åĩºçļĦ": 5816,
      "çĲĨå¿µ": 5817,
      "æĺ¯éĿŀå¸¸éĩįè¦ģçļĦ": 5818,
      "\\\\)ï¼Į": 5819,
      "åıĺéĿ©": 5820,
      "æĿĥçĽĬ": 5821,
      "éĺĶ": 5822,
      "åĸĿ": 5823,
      "ç»ĻäºĪ": 5824,
      "code": 5825,
      "Ġcle": 5826,
      "éĢĶå¾Ħ": 5827,
      "èĸĦ": 5828,
      "head": 5829,
      "éĢīæĭ©éĢĤåĲĪ": 5830,
      "æĿ°": 5831,
      "ä¹ĭå¤ĸ": 5832,
      "ET": 5833,
      "ä»¥ä¸ĭæĺ¯ä¸ĢäºĽå»ºè®®": 5834,
      "å§Ĩ": 5835,
      "å¤įæĿĤæĢ§": 5836,
      "çĽĽ": 5837,
      "ä¹Ĳè¶£": 5838,
      "Ġ11": 5839,
      "{\\\\": 5840,
      "Ġconf": 5841,
      "Ð°Ð": 5842,
      "ved": 5843,
      "ä¹ŁéľĢè¦ģ": 5844,
      "åŃ¦ä¹łæĸ°": 5845,
      "Ġaverage": 5846,
      "eters": 5847,
      "èĳ¡": 5848,
      "æĪĲç»©": 5849,
      "Ġ19": 5850,
      "èĩªè¡Įè½¦": 5851,
      "ä¿¡ä»°": 5852,
      "ç¾İçļĦ": 5853,
      "æĽ´æĶ¹": 5854,
      "å¯ĮåĲ«": 5855,
      "çĨĬ": 5856,
      "List": 5857,
      "Ġterms": 5858,
      "å«": 5859,
      "ift": 5860,
      "viron": 5861,
      "æĬ«": 5862,
      "åŃ¦ç§ĳ": 5863,
      "Ġpositive": 5864,
      "çĶ¨éĢĶ": 5865,
      "èĲĦ": 5866,
      "Ġunique": 5867,
      "Ġprime": 5868,
      "èĳ¡èĲĦ": 5869,
      "èªŀ": 5870,
      "å¤įåĪ¶": 5871,
      "å¦Ĥä½ķä½¿çĶ¨": 5872,
      "words": 5873,
      "Ġevery": 5874,
      "å¯Ĵ": 5875,
      "å§ĵ": 5876,
      "èıľåĵģ": 5877,
      "ats": 5878,
      "ier": 5879,
      "Ġav": 5880,
      "æĬķåħ¥": 5881,
      "ä»¥åĩıå°ĳ": 5882,
      "åĿĽ": 5883,
      "åıĹä¼Ĺ": 5884,
      "ĠWorld": 5885,
      "Ã³": 5886,
      "é¸¡èĤī": 5887,
      "åĴĮç»´æĬ¤": 5888,
      "Ġ\\\\,": 5889,
      "gy": 5890,
      "æĺ¯éĢļè¿ĩ": 5891,
      "åĵªéĩĮ": 5892,
      "ä¼¸": 5893,
      "è°ģ": 5894,
      "éĹ²": 5895,
      "åĪ©æ¶¦": 5896,
      "æĭĵ": 5897,
      "erest": 5898,
      "å¯¼åħ¥": 5899,
      "uth": 5900,
      "éŃħ": 5901,
      "ization": 5902,
      "åıĭè°Ĭ": 5903,
      "ãĢĤ\"": 5904,
      "matrix": 5905,
      "IT": 5906,
      "æĤł": 5907,
      "ĠPlease": 5908,
      "æĬĢæľ¯çļĦåıĳå±ķ": 5909,
      "ç¦ģ": 5910,
      "éģĩåĪ°äºĨ": 5911,
      "ä¸Ģç»Ħ": 5912,
      "ç§ĳæĻ®": 5913,
      "æ³°": 5914,
      "ç¬¬ä¸Ģä¸ª": 5915,
      "çļĦåħ³ç³»": 5916,
      "æĤī": 5917,
      "çī©èģĶç½ĳ": 5918,
      "nO": 5919,
      "æ³Ħéľ²": 5920,
      "äºĭçī©": 5921,
      "You": 5922,
      "mage": 5923,
      "é¢ĨåŁŁçļĦåºĶçĶ¨": 5924,
      "è½¬åĮĸä¸º": 5925,
      "}\\\\": 5926,
      "éĺ´": 5927,
      "æł¹æį®èĩªå·±çļĦ": 5928,
      "Ġknown": 5929,
      "Ġ18": 5930,
      "çĶŁæĪĲçļĦ": 5931,
      "culate": 5932,
      "åħ³èģĶ": 5933,
      "Ġtake": 5934,
      "Ġexperi": 5935,
      "è¯ĦåĪĨ": 5936,
      "Ġroot": 5937,
      "your": 5938,
      "Ġlast": 5939,
      "åĵ¥": 5940,
      "æĪĸä¸į": 5941,
      "size": 5942,
      "çļĦæĢ§èĥ½": 5943,
      "çŃīä¿¡æģ¯": 5944,
      "éĩĩåıĸæİªæĸ½": 5945,
      "çīĩæ®µ": 5946,
      "èīºæľ¯å®¶": 5947,
      "æĦ¿æĦı": 5948,
      "çļĦæĳĦ": 5949,
      "append": 5950,
      "è½´": 5951,
      "Ġdays": 5952,
      "è¿Ļæł·åı¯ä»¥": 5953,
      "Ġrepresent": 5954,
      "åı¯è§ĨåĮĸ": 5955,
      "Ġmessage": 5956,
      "çº¯": 5957,
      "Ġbreak": 5958,
      "cel": 5959,
      "æī£": 5960,
      "ä¸ĢåĢĭ": 5961,
      "è¨Ī": 5962,
      "åįĩçº§": 5963,
      "è®¢åįķ": 5964,
      "æľĢéĢĤåĲĪ": 5965,
      "åĲĮäºĭ": 5966,
      "åĵģç§į": 5967,
      "çģµæĦŁ": 5968,
      "æŃ¦": 5969,
      "æķĻç¨ĭ": 5970,
      "Ġfield": 5971,
      "çº¹": 5972,
      "å®ĮåĸĦ": 5973,
      "çĵľ": 5974,
      "hip": 5975,
      "ä¼łè¾¾": 5976,
      "çļĦå¸®åĬ©": 5977,
      "å¤§å¤ļæķ°": 5978,
      "å¤§äºİ": 5979,
      "ĠCloud": 5980,
      "ç´§å¯Ĩ": 5981,
      "eter": 5982,
      "load": 5983,
      "åİĺç±³": 5984,
      "éĹľ": 5985,
      "ä¹ĭåĲİ": 5986,
      "çİ¯ä¿ĿæĦıè¯Ĩ": 5987,
      "Ġpoints": 5988,
      "è«": 5989,
      "çļĦæľįåĬ¡": 5990,
      "Ġage": 5991,
      "etwork": 5992,
      "åĴĮçĽ®æłĩ": 5993,
      "Ġensure": 5994,
      "è¿Ł": 5995,
      ")$": 5996,
      "æľīæīĢå¸®åĬ©": 5997,
      "èľĤ": 5998,
      "22": 5999,
      "core": 6000,
      "éĤĢ": 6001,
      "éģĹä¼ł": 6002,
      "åºĶè¯¥æĺ¯": 6003,
      "æĪĳåĢĳ": 6004,
      "33": 6005,
      "75": 6006,
      "rol": 6007,
      "æ¬§æ´²": 6008,
      "ç´«": 6009,
      "é¼ł": 6010,
      "ger": 6011,
      "éĩįå¤§": 6012,
      "æ³¢åĬ¨": 6013,
      "ward": 6014,
      "èµĭ": 6015,
      "Ġsorted": 6016,
      "æľ¯è¯Ń": 6017,
      "å°¤åħ¶æĺ¯åľ¨": 6018,
      "åĢĴåħ¥": 6019,
      "åı¯ä»¥å¸®åĬ©åĮ»çĶŁ": 6020,
      "ä¿Ĺ": 6021,
      "light": 6022,
      "æĬĢæľ¯åĴĮ": 6023,
      "æ¶µçĽĸ": 6024,
      "çļĦè¿ĩç¨ĭä¸Ń": 6025,
      "åĽ¾åĥıè¯ĨåĪ«": 6026,
      "å¼ºè°ĥäºĨ": 6027,
      "ä½łæĥ³è¦ģ": 6028,
      "çĪĨ": 6029,
      "èģĮä¸ļåıĳå±ķ": 6030,
      "çļĦæĻ®": 6031,
      "è¿ģ": 6032,
      "æī«": 6033,
      "çļĦæĦıä¹ī": 6034,
      "çİ¯ä¿ĿçļĦ": 6035,
      "å¯¼èĪª": 6036,
      "gorithm": 6037,
      "èµŀ": 6038,
      "çī©ç§į": 6039,
      "çļĦæİ¢": 6040,
      "acci": 6041,
      "åķĨåĬ¡": 6042,
      "çĻ»å½ķ": 6043,
      "Ġstruct": 6044,
      "ä¸ĵéĹ¨": 6045,
      "æ£ĭ": 6046,
      "éĽĦ": 6047,
      "çļĦä»»åĬ¡": 6048,
      "Ġmuch": 6049,
      "æĹ¶åĪ»": 6050,
      "è½¨": 6051,
      "ww": 6052,
      "æµ·æ»©": 6053,
      "cos": 6054,
      "`.": 6055,
      "\",\\": 6056,
      "ãģŁ": 6057,
      "æĢİæł·": 6058,
      "ä¿ĿçķĻ": 6059,
      "ives": 6060,
      "åľ°çĲĨ": 6061,
      "çļĦçĶ¨æĪ·": 6062,
      "æİī": 6063,
      "å¼ºçĥĪ": 6064,
      "åºĨç¥Ŀ": 6065,
      "ä¸ĭéĿ¢æĺ¯": 6066,
      "åħ«": 6067,
      "éĴ¢": 6068,
      "å¹¿æ³ĽåºĶçĶ¨": 6069,
      "åĮĻ": 6070,
      "æĪĺäºī": 6071,
      "å¸Ŀ": 6072,
      "Ġpop": 6073,
      "ä¾ĽåºĶéĵ¾": 6074,
      "Ġoriginal": 6075,
      "ä½ĵçİ°åľ¨": 6076,
      "IM": 6077,
      "Sure": 6078,
      "ibon": 6079,
      "loat": 6080,
      "json": 6081,
      "çĽ´è§Ĥ": 6082,
      "æķ¬": 6083,
      "Ġbecause": 6084,
      "èĸª": 6085,
      "ibonacci": 6086,
      "ah": 6087,
      "åıįæĺłäºĨ": 6088,
      "åľ¨è¿ĻéĩĮ": 6089,
      "å¼ºåĮĸ": 6090,
      "çļĦçĬ¶æĢģ": 6091,
      "find": 6092,
      "åı¯èĥ½åĮħæĭ¬": 6093,
      "æ¦Ĥçİĩ": 6094,
      "æİĺ": 6095,
      "åĴĮå·¥ä½ľ": 6096,
      "ç¨į": 6097,
      "èµĦæĸĻ": 6098,
      "äººå·¥æĻºèĥ½çļĦåıĳå±ķ": 6099,
      "åŃ¦çĶŁçļĦ": 6100,
      "æıĲåĪ°çļĦ": 6101,
      "Ġident": 6102,
      "ç¡®ä¿Ŀä½ł": 6103,
      "çĶ°": 6104,
      "éĺ¿éĩĮ": 6105,
      "çºł": 6106,
      "åĭĩæķ¢": 6107,
      "äººä»¬çļĦ": 6108,
      "å§ľ": 6109,
      "Ġjust": 6110,
      "è·ĳæŃ¥": 6111,
      "`ãĢĤ\\": 6112,
      "Ġpot": 6113,
      "çĻ¼": 6114,
      "Ġquery": 6115,
      "Ġcolumn": 6116,
      "Ġ13": 6117,
      "æĿİæĺİ": 6118,
      "Ġtemp": 6119,
      "gan": 6120,
      "åĴª": 6121,
      ":'},": 6122,
      "è¿ĻäºĽéĹ®é¢ĺ": 6123,
      "åĪĨæķ°": 6124,
      "è§£éĩĬä¸Ģä¸ĭ": 6125,
      "Ġreal": 6126,
      "çļĦæĦŁåıĹ": 6127,
      "Ġiss": 6128,
      "ç»¼åĲĪèĢĥèĻĳ": 6129,
      "Ġgenerate": 6130,
      "Ġtop": 6131,
      "å·¨å¤§çļĦ": 6132,
      "Ġinf": 6133,
      "è¿ĻéĢļå¸¸": 6134,
      "çļĦæģ": 6135,
      "åºĵåŃĺ": 6136,
      "çİ¯å¢ĥçļĦ": 6137,
      "å¤ľæĻļ": 6138,
      "nå¦Ĥæŀľä½ł": 6139,
      "Ġcap": 6140,
      "ital": 6141,
      "æ°´åĪĨ": 6142,
      "Ġmonth": 6143,
      "å®īåħ¨çļĦ": 6144,
      "æª¬": 6145,
      "æľīä¸ĢäºĽ": 6146,
      "æ³¨æĦıäºĭé¡¹": 6147,
      "åŃ©åŃĲä»¬": 6148,
      "æµ¸": 6149,
      "å½ĵåľ°çļĦ": 6150,
      "çļĦåĨ³çŃĸ": 6151,
      "mary": 6152,
      "åĲ¬èµ·æĿ¥": 6153,
      "åı¯éĿłæĢ§": 6154,
      "ource": 6155,
      "ãĢĭï¼Ī": 6156,
      "iness": 6157,
      "ç¼ºçĤ¹": 6158,
      "çļĦç¥ŀ": 6159,
      "CD": 6160,
      "æķ°æį®å¤ĦçĲĨ": 6161,
      "å¸¦æĿ¥çļĦ": 6162,
      "æĹ§": 6163,
      "åĬŀåħ¬": 6164,
      "Ġ.": 6165,
      "Ġbeing": 6166,
      "çļĦæ¢": 6167,
      "æ½®": 6168,
      "æĪ´": 6169,
      "åĴĮåĪĽæĸ°": 6170,
      "æľºéģĩ": 6171,
      "çİ°æľī": 6172,
      "å®¶åħ·": 6173,
      "åĨĻä¸Ģç¯ĩåħ³äºİäººå·¥æĻºèĥ½": 6174,
      "inux": 6175,
      "æĹĭè½¬": 6176,
      "sis": 6177,
      "ave": 6178,
      "ä¼ļå¯¼èĩ´": 6179,
      "Ġcar": 6180,
      "æľįè£ħ": 6181,
      "åłĨ": 6182,
      "è¼": 6183,
      "å¹¶è¿ĶåĽŀ": 6184,
      "åł¡": 6185,
      "çļĦçĭ¬": 6186,
      "å¿§": 6187,
      "Ġaccess": 6188,
      "Ġhum": 6189,
      "é¢ĳç¹ģ": 6190,
      "è²Į": 6191,
      "çĶ·æĢ§": 6192,
      "æĸľ": 6193,
      "åı¯èĥ½å¯¹": 6194,
      "æ°ĽåĽ´": 6195,
      "åĪĿåŃ¦èĢħ": 6196,
      "æıĲä¾Ľä¸ªæĢ§åĮĸ": 6197,
      "ä»¥éģ¿åħį": 6198,
      "æ°ĳæĹı": 6199,
      "é«ĺåħ´": 6200,
      "ãģ¦": 6201,
      "learn": 6202,
      "æĺ¯åĲ¦ä¸º": 6203,
      "logy": 6204,
      "éĢĤåºĶæĢ§": 6205,
      "Ġcommand": 6206,
      "ĠEng": 6207,
      "Ġequal": 6208,
      "åķıé¡Į": 6209,
      "clude": 6210,
      "sub": 6211,
      "å¯¹æ¯Ķ": 6212,
      "Ġindex": 6213,
      "éŁ³é¢ĳ": 6214,
      "å¤±åİ»": 6215,
      "æİĪæĿĥ": 6216,
      "by": 6217,
      "ber": 6218,
      "ç§įæ¤į": 6219,
      "å¹¶ä½¿çĶ¨": 6220,
      "Ġes": 6221,
      "äºĳè®¡ç®Ĺ": 6222,
      "è´·æ¬¾": 6223,
      "åĴĮæĬĢèĥ½": 6224,
      "ä»¥ä¸ĭåĩłç§į": 6225,
      "è£Ĥ": 6226,
      "åľ¨ä¸ŃåĽ½": 6227,
      "æļĤ": 6228,
      "Ġ__": 6229,
      "nå¸ĮæľĽè¿ĻäºĽ": 6230,
      "æĴŃæĶ¾": 6231,
      "łæª¬": 6232,
      "åĪĨåī²": 6233,
      "Ġdown": 6234,
      "åĿ¦": 6235,
      "Ġtrying": 6236,
      "æıĲä¾ĽæĽ´åĬł": 6237,
      "ç§¯åĪĨ": 6238,
      "éĵº": 6239,
      "wn": 6240,
      "Ġsequence": 6241,
      "åĪ·": 6242,
      "å¤ıå¤©çļĦ": 6243,
      "():\\": 6244,
      "çļĦä¸Ģç§į": 6245,
      "æĺİæĺ¾": 6246,
      "èİĵ": 6247,
      "ä¸ĬéĿ¢": 6248,
      "åıĸå¾ĹäºĨ": 6249,
      "ms": 6250,
      "æĪĳæĥ³äºĨè§£": 6251,
      "ately": 6252,
      "ä»¥åıĬå¦Ĥä½ķ": 6253,
      "çļĦå¤§å°ı": 6254,
      "NL": 6255,
      "éĤĢè¯·": 6256,
      ")\\\\)": 6257,
      "Ġintegers": 6258,
      "æĦıè§ģ": 6259,
      "æı´": 6260,
      "å¼¦": 6261,
      "åĴĮå¤ĦçĲĨ": 6262,
      "Ñı": 6263,
      "åĲī": 6264,
      "ï¼ŁâĢĿ": 6265,
      "lu": 6266,
      "åľ¨å®¶": 6267,
      "ny": 6268,
      "ols": 6269,
      "Ġlearning": 6270,
      "æŃ£åĪĻ": 6271,
      "Ġdoc": 6272,
      "çļĦçŁŃ": 6273,
      "åĮĸåĲĪçī©": 6274,
      "äºĭæķħ": 6275,
      "Ġ40": 6276,
      "sin": 6277,
      "Ġformat": 6278,
      "ä¸ĵä¸ļäººå£«": 6279,
      "ense": 6280,
      "åĪĽæĸ°çļĦ": 6281,
      "åĪĽéĢłåĩº": 6282,
      "è¢«è®¤ä¸º": 6283,
      "æĹ¥å¸¸çĶŁæ´»": 6284,
      "è¡¨çİ°åĩº": 6285,
      "äººå·¥æĻºèĥ½åı¯ä»¥": 6286,
      "è¯ķåĽ¾": 6287,
      "çĪ¬": 6288,
      "è®¡ç®Ĺæľºè§Ĩè§ī": 6289,
      "ç¾İä¸½çļĦ": 6290,
      "å°ĩ": 6291,
      "åĴĮè¡Įä¸º": 6292,
      "aut": 6293,
      "å¹²æī°": 6294,
      "åĽ¾ä¹¦": 6295,
      "ä»ĵ": 6296,
      "gin": 6297,
      "Ġque": 6298,
      "Ġcent": 6299,
      "Ġpower": 6300,
      "åĿĲæłĩ": 6301,
      "ÑĮ": 6302,
      "ale": 6303,
      "Ġ60": 6304,
      "æĦīå¿«": 6305,
      "æĹħç¨ĭ": 6306,
      "rid": 6307,
      "æ®ĸ": 6308,
      "æĻ®éĢļ": 6309,
      "Ġpur": 6310,
      "åĨħç½®": 6311,
      "æĿ¥æıĲé«ĺ": 6312,
      "ç¾Ĭ": 6313,
      "ä¸įä»ħä»ħæĺ¯": 6314,
      "Ġdec": 6315,
      "çī©çĲĨåŃ¦": 6316,
      "([": 6317,
      ">`": 6318,
      "çļĦæ¦Ĥçİĩ": 6319,
      "åŁĥ": 6320,
      "view": 6321,
      ".\"\\": 6322,
      "è±ĨèħĲ": 6323,
      "æĪĸæľįåĬ¡": 6324,
      "Ġquestions": 6325,
      "yle": 6326,
      "æĿ¥è§£åĨ³": 6327,
      "App": 6328,
      "æŃ£å¼ı": 6329,
      "ä¼łæī¿": 6330,
      "Ġoff": 6331,
      ").\\": 6332,
      "ãĢģ`": 6333,
      "åŃ¦çĶŁçļĦåŃ¦ä¹ł": 6334,
      "åĢ¾åĲ¬": 6335,
      "ä»İè¿Ļç¯ĩ": 6336,
      "çŃĽéĢī": 6337,
      "èŀįåħ¥": 6338,
      "Ġtypically": 6339,
      "Git": 6340,
      "éľĢè¦ģæł¹æį®": 6341,
      "æ¢°": 6342,
      "å®¤æ°Ķä½ĵ": 6343,
      "åĲ¹": 6344,
      "Ġ14": 6345,
      "ĠTrue": 6346,
      "math": 6347,
      "å®ĥåľ¨": 6348,
      "down": 6349,
      "Ġ200": 6350,
      "url": 6351,
      "çĸ¼": 6352,
      "Ġstand": 6353,
      "æ·»åĬłåĪ°": 6354,
      "çļĦç¾İé£Ł": 6355,
      "è¿Ľè¡ĮæİĴåºı": 6356,
      "Ġæĸ¹æ³ķ": 6357,
      "å¥ĳ": 6358,
      "Ġsize": 6359,
      "Ġind": 6360,
      "ĠJavaScript": 6361,
      "æ·ĭ": 6362,
      "ensor": 6363,
      "çľĭçľĭ": 6364,
      "åĲĪçĲĨçļĦ": 6365,
      "abase": 6366,
      "Ġprice": 6367,
      "è£ģ": 6368,
      "åĽĽä¸ª": 6369,
      "æĿ¡æ¬¾": 6370,
      "70": 6371,
      "Ġless": 6372,
      "Node": 6373,
      "Ġfree": 6374,
      "æ»ļ": 6375,
      "èĭ¦": 6376,
      "å¹½": 6377,
      "è¨Ń": 6378,
      "æ®µèĲ½": 6379,
      "Ġtimes": 6380,
      "éĤ£éĩĮ": 6381,
      "å®¶åºŃæĪĲåĳĺ": 6382,
      "ession": 6383,
      "æĽ´é«ĺ": 6384,
      "è¿ĩç¨ĭä¸ŃçļĦ": 6385,
      "ä¸įæĸŃåľ°": 6386,
      "åİĭåĬĽåĴĮ": 6387,
      "éļĲèĹı": 6388,
      "çŀ": 6389,
      "ĠSo": 6390,
      "title": 6391,
      "åĪĽä¸ļ": 6392,
      "çļĦæĸ°": 6393,
      "è¡¥åħħ": 6394,
      "å¯¦": 6395,
      "ĠHT": 6396,
      "å¿ĥæĥħ": 6397,
      "é£Łè°±": 6398,
      "ç¡®ä¿Ŀä½łçļĦ": 6399,
      "è¢«ç§°ä¸º": 6400,
      "åı¯ä»¥å¹«åĬ©": 6401,
      "çº½çº¦": 6402,
      "é£ŀæľº": 6403,
      "éĢĻäºĽ": 6404,
      "Ġsignificant": 6405,
      "åĢ¾åĲĳ": 6406,
      "çļĦçľŁ": 6407,
      "âĢĿï¼Ī": 6408,
      "Ġcir": 6409,
      "Ġtrue": 6410,
      "28": 6411,
      "ä¹±": 6412,
      "åįķåħĥ": 6413,
      "é£İæĻ¯": 6414,
      "åĵģå°Ŀ": 6415,
      "lex": 6416,
      "Ġadv": 6417,
      "}}": 6418,
      "åľŁåľ°": 6419,
      "å½ĵä»Ĭ": 6420,
      "æ´»åĬ¨çļĦ": 6421,
      "å¥ĭ": 6422,
      "æģ©": 6423,
      "æĦıè¯ĨåĪ°": 6424,
      "ĠDe": 6425,
      "ank": 6426,
      "ĠTo": 6427,
      "å·´é»İ": 6428,
      "ln": 6429,
      "Ġmust": 6430,
      "å¾Īå¤§": 6431,
      "https": 6432,
      "ç±»çļĦ": 6433,
      "çļĦæ³¨": 6434,
      "Ġdate": 6435,
      "çĶ¢": 6436,
      "åľ°åĽ¾": 6437,
      "åİŁåŃĲ": 6438,
      "åĽŀæĬ¥": 6439,
      "Ġstore": 6440,
      "æİ¨èįĲä¸ĢäºĽ": 6441,
      "å¢¨": 6442,
      "ä½łè§īå¾Ĺ": 6443,
      "asks": 6444,
      "æĹ¶éĹ´ç®¡çĲĨ": 6445,
      "æľ¬æĸĩ": 6446,
      "Ġ'âĢľ": 6447,
      "ä½łåı¯èĥ½éľĢè¦ģ": 6448,
      "mm": 6449,
      "é»Ħèī²": 6450,
      "ä¹ĭå¤Ħ": 6451,
      "äººä½ĵ": 6452,
      "çī¹åĪ«æĺ¯åľ¨": 6453,
      "néĢļè¿ĩä»¥ä¸Ĭ": 6454,
      "åı¯ä»¥çĶ¨æĿ¥": 6455,
      "çªģçĦ¶": 6456,
      "è¡£æľį": 6457,
      "æķ£æŃ¥": 6458,
      "æ³ķåĽ½": 6459,
      "ÐµÐ": 6460,
      "ÙĦ": 6461,
      "ç¯®": 6462,
      "Ġneeds": 6463,
      "Ġdon": 6464,
      "æĸĩåĮĸçļĦ": 6465,
      "cation": 6466,
      "æ¸ħçĲĨ": 6467,
      "åıªèĥ½": 6468,
      "åĮħè£ħ": 6469,
      "æĻ¨": 6470,
      "å¥½å¥ĩ": 6471,
      "ä¾Ŀèµĸäºİ": 6472,
      "næĪĳ": 6473,
      "çļĦæĹ¶åĢĻ": 6474,
      "box": 6475,
      "åĪĽæĸ°åĴĮ": 6476,
      "Ġwere": 6477,
      "Ġenviron": 6478,
      "model": 6479,
      "Ġed": 6480,
      "ĠInt": 6481,
      "emp": 6482,
      "åľ¨çī¹å®ļ": 6483,
      "çĲ´": 6484,
      "SC": 6485,
      "çļĦä»·æł¼": 6486,
      "éĻĨ": 6487,
      "æŁłæª¬": 6488,
      "åľºæīĢ": 6489,
      "è®¡ç®Ĺæľºç§ĳåŃ¦": 6490,
      "çļĩ": 6491,
      "å¹¿æ³ĽçļĦ": 6492,
      "Ġgroup": 6493,
      "Ġbus": 6494,
      "Ġwithin": 6495,
      "néĢļè¿ĩè¿ĻäºĽ": 6496,
      "è¶³çĲĥ": 6497,
      "çķĻä¸ĭ": 6498,
      "éĻ·": 6499,
      "è¾£æ¤Ĵ": 6500,
      "é¢Ī": 6501,
      "æķ´åĲĪ": 6502,
      "æĽ´æ·±åħ¥": 6503,
      "Ġwrite": 6504,
      "etime": 6505,
      "element": 6506,
      "ä¼ĺåħĪçº§": 6507,
      ".\"},": 6508,
      "not": 6509,
      "åĲĮä¸Ģ": 6510,
      "Ġanaly": 6511,
      "æĪĲçĨŁ": 6512,
      "`ãĢĤ": 6513,
      "æµªæ¼«": 6514,
      "è¿Ļç§įæĸ¹æ³ķ": 6515,
      "çļĦè¿ĲåĬ¨": 6516,
      "æıĲä¾Ľå¸®åĬ©": 6517,
      "å¹´ä»£": 6518,
      "âĦ": 6519,
      "æ¦Ħ": 6520,
      "nP": 6521,
      "Ħæ¦Ħ": 6522,
      "åĨł": 6523,
      "åĽºå®ļ": 6524,
      "NN": 6525,
      "æĮĩä»¤": 6526,
      "å¿ĥçĲĨåŃ¦": 6527,
      "é£ĺ": 6528,
      "Ġtarget": 6529,
      "Ġour": 6530,
      "Ġden": 6531,
      "ä¸Ģèĩ´æĢ§": 6532,
      "éķ¿çļĦ": 6533,
      "çĪ½": 6534,
      "pper": 6535,
      "Ġpla": 6536,
      "å¹´æĿ¥": 6537,
      "æłĩè®°": 6538,
      "é¢Ħè®¢": 6539,
      "æİ¢éĻ©": 6540,
      "nfor": 6541,
      "Ġwell": 6542,
      "åĪĽéĢłåĬĽ": 6543,
      "äºĨä¸ĢäºĽ": 6544,
      "roid": 6545,
      "æĹĭå¾ĭ": 6546,
      "çªģåĩº": 6547,
      "è¾ĥä¸º": 6548,
      "åĴĮå¹³": 6549,
      "Ġæ£ĢæŁ¥": 6550,
      "æĪĸæĺ¯": 6551,
      "åĩºåıĳ": 6552,
      "åıĤä¸İèĢħ": 6553,
      "Ġ<=": 6554,
      "Ġfri": 6555,
      "å®ŀéĻħæĥħåĨµ": 6556,
      "ĠAdd": 6557,
      "æııç»ĺ": 6558,
      "å·¥ç¨ĭå¸Ī": 6559,
      "æĪĸç¼º": 6560,
      "éĻĦè¿ĳ": 6561,
      "come": 6562,
      "çİ¯ä¿ĿçļĦæĸĩç«ł": 6563,
      "}}{": 6564,
      "çĶŁæĹ¥": 6565,
      "æĪª": 6566,
      "Ġinterest": 6567,
      "ĠâĢľ": 6568,
      "CSS": 6569,
      "çľ¼çĿĽ": 6570,
      "ãĤĮ": 6571,
      "ts": 6572,
      "ety": 6573,
      "Ġfactor": 6574,
      "åıĳå±ķçļĦ": 6575,
      "Name": 6576,
      "å¹¶æ²¡æľī": 6577,
      "åĬłçĥŃ": 6578,
      "éĢļå¸¸æĮĩçļĦæĺ¯": 6579,
      "Ġminutes": 6580,
      "çĽĪ": 6581,
      "çļĦæ®": 6582,
      "æī¿æĭħ": 6583,
      "Con": 6584,
      "search": 6585,
      "çĬ¯ç½ª": 6586,
      "move": 6587,
      "è¿Ļéĥ¨": 6588,
      "åı¯èĥ½æĽ´": 6589,
      "åıĳæĺİ": 6590,
      "Ġreferring": 6591,
      "æıŃ": 6592,
      "æ½ľåĬĽ": 6593,
      "ä¸ĸçķĮä¸ĬæľĢ": 6594,
      "Write": 6595,
      "åģļæ³ķ": 6596,
      "çļĦæ¼Ķ": 6597,
      "ĠThey": 6598,
      "Ġpd": 6599,
      "åħ±åĲĮåĬªåĬĽ": 6600,
      "äº¡": 6601,
      "æ¨¡æĿ¿": 6602,
      "Pythonä»£çłģ": 6603,
      "ĠSystem": 6604,
      "éģĹäº§": 6605,
      "çĤ¹çļĦ": 6606,
      "Ġwater": 6607,
      "nif": 6608,
      "ä¸įåĨį": 6609,
      "æĪĳä»¬ä½¿çĶ¨": 6610,
      "Frame": 6611,
      "char": 6612,
      "Ġinitial": 6613,
      "64": 6614,
      "ä¸ĢæĿ¡": 6615,
      "æİ¥è¿ĳ": 6616,
      "çĸ²åĬ³": 6617,
      "reate": 6618,
      "late": 6619,
      "çļĦæ¯ıä¸ª": 6620,
      "csv": 6621,
      "æ©Ļ": 6622,
      "æĳĩ": 6623,
      "åĬ¨æľº": 6624,
      "è®ĵ": 6625,
      "æĻļä¸Ĭ": 6626,
      "è®°å¾Ĺ": 6627,
      "æĥħå¢ĥ": 6628,
      "èĲ¥éĶĢçŃĸçķ¥": 6629,
      "ove": 6630,
      "å®¿": 6631,
      "Ġcolor": 6632,
      "åħ¬åħ±äº¤éĢļ": 6633,
      "è¿ª": 6634,
      "True": 6635,
      "start": 6636,
      "å°ıçļĦ": 6637,
      "æ¯«": 6638,
      "åģ¥åº·çĬ¶åĨµ": 6639,
      "len": 6640,
      "Ġnon": 6641,
      "è¢«å¹¿æ³Ľ": 6642,
      "Ġsolution": 6643,
      "Se": 6644,
      "åħħçĶµ": 6645,
      "æķ°ä¸º": 6646,
      "nåľ¨è¿Ļä¸ªä¾ĭåŃĲä¸Ń": 6647,
      "nä»¥ä¸Ĭæĺ¯": 6648,
      "æ¬º": 6649,
      "åĪĨæķ£": 6650,
      "çļĦæĳĦåħ¥": 6651,
      "æłĩå¿Ĺ": 6652,
      "å¸®åĬ©ä»ĸä»¬": 6653,
      "çĽ®æłĩåĴĮ": 6654,
      "å°½åĬĽ": 6655,
      "è¡Ģåİĭ": 6656,
      "\\\\)\\": 6657,
      "è°ĥè¯ķ": 6658,
      "Ġfin": 6659,
      "æ¡¥": 6660,
      "æĹ¦": 6661,
      "å¤Ħäºİ": 6662,
      "åĴĮæ°´": 6663,
      "è¡ĮçļĦ": 6664,
      "äººéĻħåħ³ç³»": 6665,
      "æĿĢ": 6666,
      "çĮ«åĴª": 6667,
      "èŃ°": 6668,
      "ç§¯ç´¯": 6669,
      "è§Ĥçľĭ": 6670,
      "Ġopen": 6671,
      "ä¸ľè¥¿": 6672,
      "èĢĮè¨Ģ": 6673,
      "è¯Ī": 6674,
      "æī©å¤§": 6675,
      "çļĦé«ĺ": 6676,
      "ä¿ĥè¿ĽäºĨ": 6677,
      "è´«": 6678,
      "çº·": 6679,
      "è¯·æ³¨æĦı": 6680,
      "èĥ¡æ¤Ĵ": 6681,
      "åħįè´¹": 6682,
      "éģ¿åħįä½¿çĶ¨": 6683,
      "Ġeffect": 6684,
      "èī¾ç±³": 6685,
      "çĲĨæĥ³": 6686,
      "åĽŀå¿Ĩ": 6687,
      "tx": 6688,
      "åĸ»": 6689,
      "åĩ½æķ°çļĦ": 6690,
      "å®ĥå°Ĩ": 6691,
      "æŀĦå»ºä¸Ģä¸ª": 6692,
      "Ġ24": 6693,
      "éģ¿åħįè¿ĩåº¦": 6694,
      "itions": 6695,
      "è¯·éĹ®æĤ¨": 6696,
      "æ´Ľ": 6697,
      "æĪ¶": 6698,
      "Py": 6699,
      "):": 6700,
      "æĹ¥çĽĬ": 6701,
      "Ġsimp": 6702,
      "Windows": 6703,
      "ç³Ĭ": 6704,
      "åĪĽéĢłä¸Ģä¸ª": 6705,
      "æĻ®åıĬ": 6706,
      "æĺ¯æľĢ": 6707,
      "âĦĥ": 6708,
      "ELECT": 6709,
      "è®¾å¤ĩçļĦ": 6710,
      "Ġsur": 6711,
      "çĨŁæĤī": 6712,
      "çĩ¥": 6713,
      "åľĪ": 6714,
      "åıĺæĪĲ": 6715,
      "éĿ©åĳ½": 6716,
      "æĢ§æł¼": 6717,
      "ERE": 6718,
      "ling": 6719,
      "å¥³åŃ©": 6720,
      "å¾Īå¥½çļĦ": 6721,
      "Ġcommun": 6722,
      "èĩªå®ļä¹ī": 6723,
      "å¦Ī": 6724,
      "åĬ³åĬ¨": 6725,
      "æľĢå¤§åĢ¼": 6726,
      "æĮĸ": 6727,
      "æĭĤ": 6728,
      "Ġbefore": 6729,
      "è¿Ļåı¯èĥ½åĮħæĭ¬": 6730,
      "åĳ½åĲį": 6731,
      "ris": 6732,
      "ç§ĳæĻ®æĸĩç«ł": 6733,
      "ä¸ªäººä¿¡æģ¯": 6734,
      "ãĢĲ": 6735,
      "åĨĻä¸Ģä¸ª": 6736,
      "æ©Ħæ¦Ħ": 6737,
      "çĶŁæ´»è´¨éĩı": 6738,
      "nè¿Ļæ®µ": 6739,
      "çļĦçĻ": 6740,
      "çĽ¸åĲĮçļĦ": 6741,
      "åĵĪå¸Į": 6742,
      "è¿Ļä½¿å¾Ĺ": 6743,
      "mber": 6744,
      "ä½łä¼ļ": 6745,
      "erse": 6746,
      "æĶ¯æĮģåĴĮ": 6747,
      "éģ©": 6748,
      "çİ¯èĬĤ": 6749,
      "äºĮæ°§åĮĸ": 6750,
      "ãĢĳ": 6751,
      "å¤©æ°Ķé¢ĦæĬ¥": 6752,
      "çļĦæ°ĽåĽ´": 6753,
      "Ġalgorithm": 6754,
      "å¿ĥèĦı": 6755,
      "éĶĢåĶ®é¢Ŀ": 6756,
      "åĪĨå¸ĥå¼ı": 6757,
      "åĬĽåŃ¦": 6758,
      "HTTP": 6759,
      "åĽ¾è¡¨": 6760,
      "çļĦæĸĩæľ¬": 6761,
      "ãĢĤâĢĿ\\": 6762,
      "Ġresponse": 6763,
      "éĢĨ": 6764,
      "\\')\\": 6765,
      "ä¸ŃæıĲåıĸ": 6766,
      "ĠFalse": 6767,
      "çļĦä¸į": 6768,
      "çĥŃéĩı": 6769,
      "ype": 6770,
      "Ġest": 6771,
      "åį°åº¦": 6772,
      "df": 6773,
      "èĥ¸": 6774,
      "Ġlibr": 6775,
      "nä¾ĭå¦Ĥ": 6776,
      "æ»´": 6777,
      "Ġdepend": 6778,
      "å±ķçİ°äºĨ": 6779,
      "çļĦåŁİå¸Ĥ": 6780,
      "éĢļè¿ĩåĪĨæŀĲ": 6781,
      "çļĦæľªæĿ¥": 6782,
      "æľīæĹ¶åĢĻ": 6783,
      "ç§ĭå¤©": 6784,
      "Ġsteps": 6785,
      "Ġsupport": 6786,
      "çģ°": 6787,
      "æĺİå¤©": 6788,
      "comp": 6789,
      "å·¥ä½ľæķĪçİĩ": 6790,
      "æĺ¯ä¸Ģä½į": 6791,
      "å®ļæľŁè¿Ľè¡Į": 6792,
      "stit": 6793,
      "JSON": 6794,
      "ä¸Ģå®¶": 6795,
      "éģ¸": 6796,
      "éħª": 6797,
      "ges": 6798,
      "å¤¹": 6799,
      "Array": 6800,
      "æĺ¯åŁºäºİ": 6801,
      "éĻ¤ä»¥": 6802,
      "çļĦç¾İå¥½": 6803,
      "åĮ»éĻ¢": 6804,
      "æ¶Ĥ": 6805,
      "Ġarg": 6806,
      "éĩİçĶŁåĬ¨çī©": 6807,
      "éĢĥ": 6808,
      "å¯Ĩåº¦": 6809,
      "01": 6810,
      "Ġhapp": 6811,
      "ãģĵ": 6812,
      "attern": 6813,
      "ç»ĺçĶ»": 6814,
      "ero": 6815,
      "æĿ¥çľĭ": 6816,
      "åłµ": 6817,
      "å£ģ": 6818,
      "åħĶ": 6819,
      "å¦ĤæŃ¤": 6820,
      "æĤ¬": 6821,
      "å¯¹ç¤¾ä¼ļ": 6822,
      "æłĪ": 6823,
      "Ġhad": 6824,
      "Ġhealth": 6825,
      "order": 6826,
      "å¾Ĵ": 6827,
      "ird": 6828,
      "æĪĸä½¿çĶ¨": 6829,
      "çĽĴ": 6830,
      "åĻ¨çļĦ": 6831,
      "ä¸įåı¯æĪĸç¼º": 6832,
      "Ġsee": 6833,
      "æł·æľ¬": 6834,
      "ä¸įå¿ħè¦ģçļĦ": 6835,
      "cu": 6836,
      "Ġsomething": 6837,
      "çļĦæĽ´": 6838,
      "åĴĮæĸ¹æ³ķ": 6839,
      "ries": 6840,
      "ä¿ĿæĮģåģ¥åº·": 6841,
      "èĬĿ": 6842,
      "åģ¿": 6843,
      "æĢ§åĴĮåı¯": 6844,
      "åı¯ä»¥å¢ŀåĬł": 6845,
      "çļĦé¢ľèī²": 6846,
      "\"ï¼Į": 6847,
      "æ´ĭèĳ±": 6848,
      "Ġap": 6849,
      "è®ºåĿĽ": 6850,
      "Ġmatrix": 6851,
      "çİĽ": 6852,
      "èĲĿ": 6853,
      "æĽ´æľī": 6854,
      "å°±åı¯ä»¥": 6855,
      "Ġcho": 6856,
      "Ġparticular": 6857,
      "32": 6858,
      "çĽŁ": 6859,
      "rome": 6860,
      "ä¹Łåľ¨": 6861,
      "æĭĽèģĺ": 6862,
      "Ġplan": 6863,
      "åĮºåĿĹéĵ¾æĬĢæľ¯": 6864,
      "çļĦåŃ£èĬĤ": 6865,
      "åĽ¢éĺŁçļĦ": 6866,
      "åıł": 6867,
      "Ġprof": 6868,
      "}\")\\": 6869,
      "åĬłä¸Ĭ": 6870,
      "atures": 6871,
      "ä¸ĥ": 6872,
      "åģľæŃ¢": 6873,
      "Ġdetermine": 6874,
      "è§£åĨ³éĹ®é¢ĺçļĦ": 6875,
      "å¸®æĪĳæĥ³": 6876,
      "å§ĵåĲį": 6877,
      "äºĨè®¸å¤ļ": 6878,
      "Ġwrit": 6879,
      "èĪĩ": 6880,
      "éĶħä¸Ń": 6881,
      "AC": 6882,
      "çīĽèĤī": 6883,
      "æĪĳæĹłæ³ķ": 6884,
      "è®¯": 6885,
      "Ġloop": 6886,
      "ources": 6887,
      "å¦ĤæŀľæĤ¨éľĢè¦ģ": 6888,
      "llo": 6889,
      "ä¸Ģéģĵ": 6890,
      "åĲĦèĩª": 6891,
      "ç¼ºå¤±": 6892,
      "son": 6893,
      "æĹ©æľŁ": 6894,
      "umber": 6895,
      "mplement": 6896,
      "ified": 6897,
      "ç»Łä¸Ģ": 6898,
      "æľĢä½İ": 6899,
      "æ¼Ķè®²": 6900,
      "ccess": 6901,
      "oking": 6902,
      "åµ": 6903,
      "å¯¹æĤ¨": 6904,
      "æĽ´æį¢": 6905,
      "åºĶçĶ¨çļĦ": 6906,
      "èº«ä½ĵåĴĮ": 6907,
      "åįĬå¾Ħ": 6908,
      "å¸®åĬ©åĮ»çĶŁ": 6909,
      "èĭ±åĽ½": 6910,
      "è¿ĺæľīåħ¶ä»ĸ": 6911,
      "Ġmultiple": 6912,
      "çº¿ä¸Ĭ": 6913,
      "Ġpol": 6914,
      "ATE": 6915,
      "æĪĸèĢħåľ¨": 6916,
      "æĤ£èĢħçļĦ": 6917,
      "çļĦæŁĲ": 6918,
      "Ġ\\\\[": 6919,
      "å¿ĥçĲĨåĴ¨è¯¢": 6920,
      "æľĢå¤§çļĦ": 6921,
      "ç´łé£Ł": 6922,
      "java": 6923,
      "äºĭä¸ļ": 6924,
      "aba": 6925,
      "è¯ĨåĪ«åĴĮ": 6926,
      "ç¯ĩåħ³äºİ": 6927,
      "ĠAn": 6928,
      "utput": 6929,
      "åĭĻ": 6930,
      "Ġmark": 6931,
      "å®ĥåı¯ä»¥": 6932,
      "Ġsing": 6933,
      "ä¸įæĸŃè¿ĽæŃ¥": 6934,
      "éĢļå¸¸æĺ¯": 6935,
      "ä¸»äºº": 6936,
      "site": 6937,
      "çļĦäºĭæĥħ": 6938,
      "çĩĥæĸĻ": 6939,
      "36": 6940,
      "ĠÐ²": 6941,
      "çĮľ": 6942,
      "nå¯¹äºİ": 6943,
      "çļĦåĬĽéĩı": 6944,
      "å¤ªéĺ³ç³»": 6945,
      "å¼ķåĬĽ": 6946,
      "å¹¶è¡Į": 6947,
      "nder": 6948,
      "çļĦåīį": 6949,
      "çĶŁæĪĲä¸Ģæ®µ": 6950,
      "åŃĹä½ĵ": 6951,
      "Ġuses": 6952,
      "åħ´è¶£åĴĮ": 6953,
      "äººæīį": 6954,
      "æĻ®éģį": 6955,
      "èĨľ": 6956,
      "nFor": 6957,
      "å®¢æĪ·ç«¯": 6958,
      "æīĢéľĢçļĦ": 6959,
      "Ġatt": 6960,
      "ªæĺİ": 6961,
      "çİ¯å¢ĥåĴĮ": 6962,
      "ç£¨": 6963,
      "LL": 6964,
      "txt": 6965,
      "çĶ¨æĪ·åıįé¦Ī": 6966,
      "HERE": 6967,
      "case": 6968,
      "AN": 6969,
      "æķĪçĽĬ": 6970,
      "URL": 6971,
      "è·¯çĶ±": 6972,
      "ä¸īè§Ĵå½¢": 6973,
      "æĬµ": 6974,
      "éĿŀæ³ķ": 6975,
      "Ġimpro": 6976,
      "è¾¹ç¼ĺ": 6977,
      "Ġstatement": 6978,
      "cm": 6979,
      "åľ¨è¿Ľè¡Į": 6980,
      "æŀĿ": 6981,
      "éĿŀå¸¸éĢĤåĲĪ": 6982,
      "ä¸¢": 6983,
      "çļĦè¯Ńè¨Ģ": 6984,
      "ä½įæķ°": 6985,
      "è¯įè¯Ń": 6986,
      "å¹¶å°Ĩåħ¶": 6987,
      "Ġmod": 6988,
      "ä¹ĲæĦı": 6989,
      "ä»ĭç»įä¸Ģä¸ĭ": 6990,
      "åĪ¶åĵģ": 6991,
      "è¿½è¸ª": 6992,
      "è¿Ŀåıį": 6993,
      "åľ¨éĿ¢å¯¹": 6994,
      "çļĦçĲĨè§£": 6995,
      "çĽ¸äºĴä½ľçĶ¨": 6996,
      "ç©¿çĿĢ": 6997,
      "çµ±": 6998,
      "æĮĤ": 6999,
      "é¡¾éĹ®": 7000,
      "æĬ«èĲ¨": 7001,
      "ä½łæľīä»Ģä¹Ī": 7002,
      "éĽķ": 7003,
      "å¼ĢæºĲ": 7004,
      "ÃŃ": 7005,
      "çģŃ": 7006,
      "oot": 7007,
      "éĤ»": 7008,
      "åľĨçļĦ": 7009,
      "æĥ§": 7010,
      "æĤ¨æıĲä¾Ľ": 7011,
      "åĪ©çİĩ": 7012,
      "èĬĴ": 7013,
      "çĽ¸æ¯Ķ": 7014,
      "éĿŀå¸¸æĦŁè°¢": 7015,
      "å¹¿éĺĶ": 7016,
      "åľ¨å®ŀéĻħåºĶçĶ¨ä¸Ń": 7017,
      "æµģçķħ": 7018,
      "äººå·¥æĻºèĥ½æĬĢæľ¯çļĦ": 7019,
      "NLP": 7020,
      "æŃ£éĿ¢": 7021,
      "åı¯ä»¥æľīæķĪ": 7022,
      "ä¸ŃåĽ½çļĦ": 7023,
      "æĿ¥å¤ĦçĲĨ": 7024,
      "éŁ§": 7025,
      "çļĦæķĪæŀľ": 7026,
      "çŃīå¤ļç§į": 7027,
      "æ¸©å®¤æ°Ķä½ĵ": 7028,
      "æĴĳ": 7029,
      "å»¶è¿Ł": 7030,
      "Ġtasks": 7031,
      "æĦŁçŁ¥": 7032,
      "ĠéĢīæĭ©": 7033,
      "Ġproject": 7034,
      "Ġconsole": 7035,
      "æĬ½è±¡": 7036,
      "Ġlarge": 7037,
      "Ġbest": 7038,
      "nums": 7039,
      "å½±åĵįåĬĽ": 7040,
      "é¡ºåĪ©": 7041,
      "éľľ": 7042,
      "DB": 7043,
      "Ġprogramming": 7044,
      "åı¯ä»¥å®ŀçİ°": 7045,
      "ä»ĸäººçļĦ": 7046,
      "è¿ĳå¹´æĿ¥": 7047,
      "åµĮ": 7048,
      "ä»£çłģä¸Ń": 7049,
      "Ġoc": 7050,
      "?\"},": 7051,
      "Ġdid": 7052,
      "èµĦæºĲåĴĮ": 7053,
      "PythonçļĦ": 7054,
      "æĻ´": 7055,
      "éŃħåĬĽ": 7056,
      "ä¹Ļ": 7057,
      "æĽ´é«ĺçļĦ": 7058,
      "é¡ŀ": 7059,
      "Ġchange": 7060,
      "çīĪæĿĥ": 7061,
      "ĠSe": 7062,
      "å§¿åĬ¿": 7063,
      "èĲ¥éĢł": 7064,
      "èµ¢": 7065,
      "æĺŁæľŁ": 7066,
      "ĠBe": 7067,
      "åĽłä¸ºå®ĥä»¬": 7068,
      "iles": 7069,
      "ç«ŀäºīå¯¹æīĭ": 7070,
      "å¿ĥä¸Ń": 7071,
      "åĨ·éĿĻ": 7072,
      "å¼Ģå¤´": 7073,
      "è¢«è§Ĩä¸º": 7074,
      "å°ıäºİ": 7075,
      "çŁŃæľŁ": 7076,
      "Sp": 7077,
      "ä¸Ĭåįĩ": 7078,
      "è´Łè½½": 7079,
      "ually": 7080,
      "çĽ¸çŃī": 7081,
      "rand": 7082,
      "ä¼ļå¯¹": 7083,
      "nect": 7084,
      "éĢŁåº¦åĴĮ": 7085,
      "Ġmaking": 7086,
      "åİĤ": 7087,
      "ĠåĪĽå»º": 7088,
      "çļĦåľºæĻ¯": 7089,
      "pected": 7090,
      "ining": 7091,
      "çļĦç¼ĸç¨ĭè¯Ńè¨Ģ": 7092,
      "åį§": 7093,
      ",\"": 7094,
      "æİ¥ç§į": 7095,
      "è¿Ľåº¦": 7096,
      "åı¯èĥ½å½±åĵį": 7097,
      "åıĤè§Ĥ": 7098,
      "Ġsort": 7099,
      "é¢¨": 7100,
      "ĠAl": 7101,
      "nclass": 7102,
      "åħ¶ä¸ŃçļĦ": 7103,
      "Ġsug": 7104,
      "çļĦçķ": 7105,
      "ura": 7106,
      "æī¬": 7107,
      "Ġ!": 7108,
      "air": 7109,
      "Ġenvironment": 7110,
      "èĩªçĦ¶çģ¾å®³": 7111,
      "å²¸": 7112,
      "åĪĨæĶ¯": 7113,
      "åĿļæŀľ": 7114,
      "å²Ĺ": 7115,
      "å®¶éķ¿": 7116,
      "Ġbook": 7117,
      "iled": 7118,
      "Ġconcept": 7119,
      "çļĦæŃ£ç¡®": 7120,
      "éĢĬ": 7121,
      "å¹¶æł¹æį®": 7122,
      "å¤ĸè§Ĥ": 7123,
      "æĴĴ": 7124,
      "åľ°åĮºçļĦ": 7125,
      "lection": 7126,
      "Ġcertain": 7127,
      "æ®ĭ": 7128,
      "æ¶ĪéĻ¤": 7129,
      "åĲĪæĪĲ": 7130,
      "ä½łåı¯ä»¥éĢļè¿ĩ": 7131,
      "éĢļå¸¸çĶ¨äºİ": 7132,
      "ä»Ķç»Ĩ": 7133,
      "(-": 7134,
      "äºĮæ°§åĮĸç¢³": 7135,
      "æ¯ıä¸Ģä¸ª": 7136,
      "æ¯ıåĳ¨": 7137,
      "sib": 7138,
      "è¿«": 7139,
      "å®ŀçĶ¨": 7140,
      "Ġdistance": 7141,
      "å°ıåŀĭ": 7142,
      "`ãĢģ`": 7143,
      "æ¸¸å®¢": 7144,
      "èĬĤçľģ": 7145,
      "éĢĤçĶ¨": 7146,
      "Ġcombin": 7147,
      "çĸ¼çĹĽ": 7148,
      "nplt": 7149,
      "ä¸ºäººç±»": 7150,
      "ä¸ĢæĹ¦": 7151,
      "äºĭåĬ¡": 7152,
      "å¢ŀæ·»": 7153,
      "çļĦä¸ĸçķĮ": 7154,
      "æįī": 7155,
      "çļĦæį": 7156,
      "gether": 7157,
      "è®¤åı¯": 7158,
      "èģªæĺİ": 7159,
      "åľ°çĲĥçļĦ": 7160,
      "éĿ¢ä¸´çĿĢ": 7161,
      "'ll": 7162,
      "åĴĮç»ıéªĮ": 7163,
      "é¥®é£Łä¹łæĥ¯": 7164,
      "ĠSh": 7165,
      "åĨĽäºĭ": 7166,
      "æĽ´å¤įæĿĤçļĦ": 7167,
      "è´Łæĭħ": 7168,
      "çİ°ä»£ç¤¾ä¼ļ": 7169,
      "ä¹ĭæĹħ": 7170,
      "å°ıç»Ħ": 7171,
      "Ġpotential": 7172,
      "nè¿Ļæ®µä»£çłģ": 7173,
      "å®ĥä¸įä»ħ": 7174,
      "ç¬¬ä¸īæĸ¹": 7175,
      "æľºåĻ¨ç¿»è¯ĳ": 7176,
      "wh": 7177,
      "åĩłä½ķ": 7178,
      "ooks": 7179,
      "çĶ¨æĪ·è¾ĵåħ¥": 7180,
      "Ġ---": 7181,
      "çĥŃæĥħ": 7182,
      "æ¯ıç§į": 7183,
      "include": 7184,
      "å©ļç¤¼": 7185,
      "ãĢĤ`": 7186,
      "èĤ¿": 7187,
      "å»ºç«ĭä¸Ģä¸ª": 7188,
      "Ġshow": 7189,
      "side": 7190,
      "è°¨": 7191,
      "åķĬ": 7192,
      "èĥ½å¸®åĬ©ä½ł": 7193,
      "Ġweek": 7194,
      "èĪªç©º": 7195,
      "é½Ĳ": 7196,
      "çļĦæ¢¦": 7197,
      "Ġ**ãĢĬ": 7198,
      "åģļå¥½": 7199,
      "æıĲä¾ĽæĽ´å¥½çļĦ": 7200,
      "åĴĮé«ĺ": 7201,
      "Ġprob": 7202,
      "çħİ": 7203,
      "Ġrelated": 7204,
      "ä»»æĦı": 7205,
      "åĴĮç»ıæµİ": 7206,
      "ivity": 7207,
      "æľīæĹ¶": 7208,
      "æµģåĬ¨": 7209,
      "çļĦçĹħ": 7210,
      "De": 7211,
      "ä¸¾åĬŀ": 7212,
      "ä¸Ģæ¬¡æĢ§": 7213,
      "çļĦæĦŁè§ī": 7214,
      "Cont": 7215,
      "ç»ĻæĪĳä¸ĢäºĽ": 7216,
      "lig": 7217,
      "éļ¾åº¦": 7218,
      "åı£è¯Ń": 7219,
      "lob": 7220,
      "éĸĭ": 7221,
      "å¿ĥåĴĮ": 7222,
      "libaba": 7223,
      "åĴĮä¸Ģä¸ª": 7224,
      "æĸĩçĮ®": 7225,
      "çļĦæĬĢå·§": 7226,
      "æĻĴ": 7227,
      "äººå·¥æĻºèĥ½åľ¨åĮ»çĸĹé¢ĨåŁŁ": 7228,
      "æĸĩä»¶ä¸Ń": 7229,
      "æĲľç´¢å¼ķæĵİ": 7230,
      "ç»ıçĲĨ": 7231,
      "respon": 7232,
      "æĬ¥éģĵ": 7233,
      "å®¡è®¡": 7234,
      "èĬ±åĽŃ": 7235,
      "other": 7236,
      "åı¯èĥ½ä¸į": 7237,
      "å¯¿åĳ½": 7238,
      "ouble": 7239,
      "æıĲéĹ®": 7240,
      "åĴĮæķĻèĤ²": 7241,
      "lst": 7242,
      "nx": 7243,
      "dat": 7244,
      "éĿŀå¸¸å¥½": 7245,
      "divid": 7246,
      "èĥĥ": 7247,
      "å¯¹è¯ĿåĨħå®¹": 7248,
      "å¹´äºº": 7249,
      "çļĦæĻ®åıĬ": 7250,
      "å¹²çĩ¥": 7251,
      "çļĦæ»": 7252,
      "äººå·¥æĻºèĥ½å°Ĩ": 7253,
      "æķ°æį®ç»ĵæŀĦ": 7254,
      "æĿĲè´¨": 7255,
      "ç§ĺå¯Ĩ": 7256,
      "è¯·å¸®æĪĳ": 7257,
      "çļĦæ¸©åº¦": 7258,
      "çļĦæĲ": 7259,
      "é¸Ń": 7260,
      "anges": 7261,
      "æĤ¨å¥½": 7262,
      "é¦¨": 7263,
      "Ġwide": 7264,
      "ross": 7265,
      "çĮª": 7266,
      "çħ§çīĩ": 7267,
      "['": 7268,
      "æĻ¯è§Ĥ": 7269,
      "çļĦåħī": 7270,
      "éĿ¢åĲĳ": 7271,
      "çļĦåĩ½æķ°": 7272,
      "mod": 7273,
      "Ġtre": 7274,
      "åħ¶åľ¨": 7275,
      "cing": 7276,
      "ĠMy": 7277,
      "split": 7278,
      "Ġsoft": 7279,
      "ä¸Ģéĥ¨": 7280,
      "Ġbetter": 7281,
      "ä¾Ŀæį®": 7282,
      "è¡¡éĩı": 7283,
      "å¤§å¤§": 7284,
      "çĹħäºº": 7285,
      "[\\'": 7286,
      "åŃĺåľ¨ä¸ĢäºĽ": 7287,
      "Ġindivid": 7288,
      "GP": 7289,
      "åĬłå·¥": 7290,
      "éĥ½æľīåħ¶": 7291,
      "åŁºç¡Ģè®¾æĸ½": 7292,
      "ä¸ŃéĹ´": 7293,
      "duce": 7294,
      "çļĦæ®µ": 7295,
      "æľīæľº": 7296,
      "Ġnext": 7297,
      "ä»¥ä¸ĭåĩłçĤ¹": 7298,
      "å»ºèŃ°": 7299,
      "lue": 7300,
      "éģ¥": 7301,
      "æĭŁåĲĪ": 7302,
      "åĲ¬è¯´": 7303,
      "atus": 7304,
      "Ġgood": 7305,
      "ĠThese": 7306,
      "æ¬²": 7307,
      "ä¸įçŁ¥éģĵ": 7308,
      "çĶŁåĬ¨": 7309,
      "Ġeng": 7310,
      "å¢ŀåĬłäºĨ": 7311,
      "Ġæµĭè¯ķ": 7312,
      "åĬłåī§": 7313,
      "æ©Ħæ¦Ħæ²¹": 7314,
      "Ġsci": 7315,
      "And": 7316,
      "æľīå®³": 7317,
      "å®ļå¾ĭ": 7318,
      "Ġeffic": 7319,
      "ç¬¬äºĮä¸ª": 7320,
      "std": 7321,
      "æī®æ¼ĶçĿĢ": 7322,
      "æº¶": 7323,
      "äº¿": 7324,
      "äº¤åıī": 7325,
      "æ¯ıä¸ªäººçļĦ": 7326,
      "nding": 7327,
      "Ġlight": 7328,
      "Ġê": 7329,
      "åĴĮéģĵå¾·": 7330,
      "éľĢè¦ģè¿Ľè¡Į": 7331,
      "çļĦå¸Ĥåľº": 7332,
      "å®ĮæĪĲä»»åĬ¡": 7333,
      "sorted": 7334,
      "å¦Ĩ": 7335,
      "æ¸ħåįķ": 7336,
      "åħ¬å¼Ģ": 7337,
      "æĮĸæİĺ": 7338,
      "æ²Ļæ»©": 7339,
      "æķĪåºĶ": 7340,
      "å·²ç»ıæĪĲä¸º": 7341,
      "åŀĤ": 7342,
      "çĽ¾": 7343,
      "èģĮåľº": 7344,
      "ãĢĮ": 7345,
      "å®¾": 7346,
      "ä»£è°¢": 7347,
      "ä¿¡æģ¯åĴĮ": 7348,
      "Ġstandard": 7349,
      "**:\\": 7350,
      "èĥĢ": 7351,
      "Ġlife": 7352,
      "çİ¯å¢ĥéĹ®é¢ĺ": 7353,
      "äºĴçĽ¸": 7354,
      "æ¨Ļ": 7355,
      "åĪĢ": 7356,
      "æħİ": 7357,
      "çļĦä¸įåĲĮ": 7358,
      "åĲİæŀľ": 7359,
      "æĶ¾ç½®": 7360,
      "ili": 7361,
      "åįľ": 7362,
      "ä¹Łå°Ĩ": 7363,
      "px": 7364,
      "Ġ_": 7365,
      "Ġdocument": 7366,
      "æĽ´å¥½åľ°ç®¡çĲĨ": 7367,
      "ç½ĳç»ľå®īåħ¨": 7368,
      "næīĢä»¥": 7369,
      "ãĢį": 7370,
      "åĲĮæŃ¥": 7371,
      "ls": 7372,
      "è¾¹çķĮ": 7373,
      "\">\\": 7374,
      "åį°è±¡": 7375,
      "ocker": 7376,
      "è®©äººä»¬": 7377,
      "æī¿åıĹ": 7378,
      "å±ķå¼Ģ": 7379,
      "nconst": 7380,
      "æıĲåĪ°äºĨ": 7381,
      "åģļèµ·": 7382,
      "åıĭå¥½": 7383,
      "åĪ°çļĦ": 7384,
      "Ġgive": 7385,
      "çĥ¤ç®±": 7386,
      "ä¹īè¯į": 7387,
      "æīĢæľīçļĦ": 7388,
      "ä»ĵåºĵ": 7389,
      "WS": 7390,
      "åıªè¦ģ": 7391,
      "ä»İè¿Ļç¯ĩæĸĩç«łä¸ŃæıĲåıĸ": 7392,
      "é£İåĳ³": 7393,
      "icro": 7394,
      "Ġmade": 7395,
      "è½¬åŀĭ": 7396,
      "åŁİå¸ĤçļĦ": 7397,
      "loyees": 7398,
      "ik": 7399,
      "è¿Ļæł·æĪĳ": 7400,
      "æĥħæĦŁåĪĨæŀĲ": 7401,
      "ä¸»è§Ĵ": 7402,
      "åł´": 7403,
      "è¿Ļæľ¬ä¹¦": 7404,
      "æ°´ä¸Ń": 7405,
      "123": 7406,
      "é²ģ": 7407,
      "ãĢĤâĢĿ'},": 7408,
      "Ġ''},": 7409,
      "ç»ĺåĪ¶": 7410,
      "Ġtechno": 7411,
      "çĶµåķĨ": 7412,
      "Ġcompany": 7413,
      "åĴĮè°ĥæķ´": 7414,
      "næİ¥ä¸ĭæĿ¥": 7415,
      "è¯¯è§£": 7416,
      "**ï¼Ī": 7417,
      "çĶµåĬ¨": 7418,
      "Ġiter": 7419,
      "ption": 7420,
      "å°ĺ": 7421,
      "åģ¥åº·åĴĮ": 7422,
      "æĪĸéľĢè¦ģ": 7423,
      "åı¤åħ¸": 7424,
      "ä½Ĩåľ¨": 7425,
      "hether": 7426,
      "Ġstructure": 7427,
      "æº¯": 7428,
      ")ï¼Į": 7429,
      "Ġ=>": 7430,
      "Ġcontains": 7431,
      "ysi": 7432,
      "æĺ¯æĪĳä»¬": 7433,
      "éĢıæĺİåº¦": 7434,
      "è¦ģæ³¨æĦı": 7435,
      "çĶµæºĲ": 7436,
      "èĭ±éĽĦ": 7437,
      "èħ»": 7438,
      "è¿ĻäºĽæķ°æį®": 7439,
      "[]": 7440,
      "AIåľ¨": 7441,
      "ĠÐ¿": 7442,
      "nD": 7443,
      "çļĦçī¹çĤ¹": 7444,
      "æĺİçĻ½": 7445,
      "è¯·éļıæĹ¶": 7446,
      "åĽ¾æ¡Ī": 7447,
      "æĺ¥å¤©": 7448,
      "èĺ": 7449,
      "è¡¨ä¸Ń": 7450,
      "æĿĥéĩį": 7451,
      "éĽ¾": 7452,
      "å¯»æ±Ĥä¸ĵä¸ļ": 7453,
      "æĿ¥ç¡®å®ļ": 7454,
      "åı¯æĮģç»ŃæĢ§": 7455,
      "ä¿ĥéĶĢ": 7456,
      "GB": 7457,
      "lose": 7458,
      "å¥½å¤Ħ": 7459,
      "å®¢æĪ·æľįåĬ¡": 7460,
      "è®Ńç»ĥæ¨¡åŀĭ": 7461,
      "è£¤": 7462,
      "åīµ": 7463,
      "åĪĻæĺ¯": 7464,
      "Ġmis": 7465,
      "hemat": 7466,
      "çļĦç»ĵæŀĦ": 7467,
      "ä¿ĿæĬ¤æĪĳä»¬çļĦ": 7468,
      "å¾¡": 7469,
      "nNow": 7470,
      "Ġemail": 7471,
      "éģŃ": 7472,
      "åħ¼å®¹æĢ§": 7473,
      "OR": 7474,
      "çļĦè¯ĹæŃĮ": 7475,
      "æģĭ": 7476,
      "å¹¶ä¸įæĺ¯": 7477,
      "æĮĳæĪĺåĴĮ": 7478,
      "æĹłéľĢ": 7479,
      "åľ¨ä¸įåĲĮçļĦ": 7480,
      "æ²Ļæĭī": 7481,
      "åı¯èĥ½ä¸İ": 7482,
      "å®ĺæĸ¹ç½ĳç«Ļ": 7483,
      "ä¸įèī¯": 7484,
      "çĮİ": 7485,
      "eta": 7486,
      "ç¼ĸè¯ĳ": 7487,
      "Ġæĺ¯ä¸Ģä¸ª": 7488,
      "æł·å¼ı": 7489,
      "çĶµè·¯": 7490,
      "Ġremain": 7491,
      "åĲĪä½ľä¼Ļä¼´": 7492,
      "ä¸Ģå¹´": 7493,
      "äººæĢ§": 7494,
      "Ġgame": 7495,
      "ĠData": 7496,
      "æľīæ°§": 7497,
      "å¿«éĢŁåıĳå±ķ": 7498,
      "ä¸ĭä¸Ģä¸ª": 7499,
      "æľºæ¢°": 7500,
      "çŁŃè¯Ń": 7501,
      "ted": 7502,
      "åı¯èĥ½ä¼ļå¯¹": 7503,
      "åİĭç¼©": 7504,
      "å¹¶ä¸º": 7505,
      "Ġduring": 7506,
      "ĠWhat": 7507,
      "é»ĺè®¤": 7508,
      "Ph": 7509,
      "åº¦åģĩ": 7510,
      "å¾®ä¿¡": 7511,
      "éĨĭ": 7512,
      "ĠZ": 7513,
      "è¡Įé©¶": 7514,
      "Ġbase": 7515,
      "åĩıå°ĳå¯¹": 7516,
      "çĥŃéĹ¨": 7517,
      "æĤ²": 7518,
      "Ġdiction": 7519,
      "els": 7520,
      "æĪĳå¸ĮæľĽ": 7521,
      "è¯Ńä¹ī": 7522,
      "âĢĻ": 7523,
      "åı¯èĥ½ä¼ļå½±åĵį": 7524,
      "æĿ¡ä»¶ä¸ĭ": 7525,
      "Ġask": 7526,
      "DP": 7527,
      "éĽĩ": 7528,
      "æĢİä¹Īæł·": 7529,
      "ral": 7530,
      "çļĦæķĪçİĩåĴĮ": 7531,
      "æĢķ": 7532,
      "è¿Ļç±»": 7533,
      "çģµæ´»æĢ§": 7534,
      "Ġincludes": 7535,
      "æĺ¯äººç±»": 7536,
      "æħ¢æħ¢": 7537,
      "æĵĩ": 7538,
      "plotlib": 7539,
      "åŃķ": 7540,
      "æķ´çĲĨ": 7541,
      "Ãł": 7542,
      "ĠEnglish": 7543,
      "çļĦéĩįè¦ģç»ĦæĪĲéĥ¨åĪĨ": 7544,
      "ç²¾åĬĽ": 7545,
      "åıĹæ¬¢è¿İçļĦ": 7546,
      "ç¨¿": 7547,
      "æĴ°åĨĻ": 7548,
      "åĩłç§į": 7549,
      "æŃī": 7550,
      "æĪĳæľĢè¿ĳ": 7551,
      "åĴĮå¸Ĥåľº": 7552,
      "Ġdescri": 7553,
      "Id": 7554,
      "æĤ¨åı¯ä»¥åľ¨": 7555,
      "67": 7556,
      "ä½łåľ¨": 7557,
      "çļĦæ¯Ķä¾ĭ": 7558,
      "rice": 7559,
      "è¿Ļæ¬¡": 7560,
      "åĴĮåĨ³çŃĸ": 7561,
      "è¡Ģç®¡": 7562,
      "åĲ¦åĪĻ": 7563,
      "å±ħä½ı": 7564,
      "ĠNone": 7565,
      "æĸĲ": 7566,
      "éģ¸æĵĩ": 7567,
      "æĪĳä»¬åı¯ä»¥éĢļè¿ĩ": 7568,
      "æĹ©é¤Ĳ": 7569,
      "ban": 7570,
      "ä¼ĺè´¨": 7571,
      "`ï¼Ī": 7572,
      "æĮĩåĩº": 7573,
      "èĦĨ": 7574,
      "çľŁçļĦ": 7575,
      "å¹¶ç¡®ä¿Ŀ": 7576,
      "çĻ½èī²": 7577,
      "éĩĩåıĸè¡ĮåĬ¨": 7578,
      "æī«æıı": 7579,
      "']": 7580,
      "èį¡": 7581,
      "ĠUn": 7582,
      "å¦Ĥæŀľä½łæĥ³": 7583,
      "è®©ä»ĸä»¬": 7584,
      "Ġu": 7585,
      "$.\\": 7586,
      "çļĦä½ľçĶ¨": 7587,
      "ateg": 7588,
      "æĸĩåĮĸèĥĮæĻ¯": 7589,
      "Ġpath": 7590,
      "éļıçĿĢæĬĢæľ¯çļĦ": 7591,
      "cord": 7592,
      "Ġmar": 7593,
      "ä¼Ĭ": 7594,
      "æĭĸ": 7595,
      "Ñĩ": 7596,
      "âĢ¦": 7597,
      "Ġitem": 7598,
      "ush": 7599,
      "å¹¶è¿Ľè¡Į": 7600,
      "Ġfew": 7601,
      "è¾ĵåĩºç»ĵæŀľ": 7602,
      "æ³¨éĩĬ": 7603,
      "å¿ĹæĦ¿": 7604,
      "å¿½è§Ĩ": 7605,
      "çļĦè®¾è®¡": 7606,
      "èµ·æºĲ": 7607,
      "As": 7608,
      "raw": 7609,
      "Ġfunctions": 7610,
      "Ġsides": 7611,
      "æ°¢": 7612,
      "\\\\).\\": 7613,
      "åı¯ä»¥æľīæķĪåľ°": 7614,
      "Ġindividual": 7615,
      "ç¾İåĳ³çļĦ": 7616,
      "æ³Ĭ": 7617,
      "Ġvoid": 7618,
      "Ġ->": 7619,
      "back": 7620,
      "çļĦæł¼": 7621,
      "çĽ¸åıį": 7622,
      "ume": 7623,
      "è§¦åıĳ": 7624,
      "ailed": 7625,
      "ç¢Ĺ": 7626,
      "ape": 7627,
      "èģĮè´£": 7628,
      "ä¼¯": 7629,
      "äºīè®®": 7630,
      "Ġcalled": 7631,
      "èıĩ": 7632,
      "åĩ½æķ°æĿ¥": 7633,
      "å¾ĭå¸Ī": 7634,
      "Ġnetwork": 7635,
      "ç²ĺ": 7636,
      "åĴĮçŁ¥è¯Ĩ": 7637,
      "æľīåĬ©äºİæıĲé«ĺ": 7638,
      "çĶŁæĪĲä¸Ģä¸ªåħ³äºİ": 7639,
      "Ġ[]\\": 7640,
      "åĢ¡": 7641,
      "åĳ¨æľ«": 7642,
      "å¸®åĬ©æĪĳä»¬": 7643,
      "Ġstrings": 7644,
      "åģ¶æķ°": 7645,
      "ä¸Ģå¼ł": 7646,
      "amed": 7647,
      "çĶŁçĲĨ": 7648,
      "Ġspace": 7649,
      "ä½łåı¯ä»¥åľ¨": 7650,
      "åĴĮåģ¥åº·": 7651,
      "çĶ¨åĵģ": 7652,
      "å¯¹æľªæĿ¥": 7653,
      "apple": 7654,
      "ÑģÑĤ": 7655,
      "å®Įç¾İ": 7656,
      "ç®Ģè¦ģ": 7657,
      "Ġselect": 7658,
      "éĢļå¸¸åĮħæĭ¬": 7659,
      "ãĥ³": 7660,
      "2022": 7661,
      "éĹ®é¢ĺæĹ¶": 7662,
      "ina": 7663,
      "å½±åĵįäºĨ": 7664,
      "è¿Ļç§įæĥħåĨµä¸ĭ": 7665,
      "åºŁå¼ĥ": 7666,
      "Hub": 7667,
      "æ°¸è¿ľ": 7668,
      "face": 7669,
      "éĩįè¦ģæĢ§": 7670,
      "Linux": 7671,
      "Ġhist": 7672,
      "å°±ä¼ļ": 7673,
      "å¾®é£İ": 7674,
      "ĠTh": 7675,
      "éĩįè¦ģä½ľçĶ¨": 7676,
      "èħ¹": 7677,
      "å¤ļæ¬¡": 7678,
      "åĴĮä¸ªäºº": 7679,
      "äººåĬĽ": 7680,
      "éĩıçļĦ": 7681,
      "ulation": 7682,
      "æ±Ĥè§£": 7683,
      "é«ĺè´¨éĩıçļĦ": 7684,
      "æĭħå¿ĥ": 7685,
      "çĶ¨æĪ·åı¯ä»¥": 7686,
      "Ġreverse": 7687,
      "çļĦæ¤": 7688,
      "æ§": 7689,
      "init": 7690,
      "èĥİ": 7691,
      "çļĦè¯Ŀ": 7692,
      "å°±èĥ½": 7693,
      "utions": 7694,
      "Ġlooking": 7695,
      "ube": 7696,
      "Ġpersonal": 7697,
      "èĴĻ": 7698,
      "æĹ¶éĹ´åĨħ": 7699,
      "å®¶çļĦ": 7700,
      "sition": 7701,
      "å¸¸çĶ¨çļĦ": 7702,
      "Ġdisplay": 7703,
      "Ġimplement": 7704,
      "onent": 7705,
      "è£ħå¤ĩ": 7706,
      "æ¯ķ": 7707,
      "æĬĵ": 7708,
      "Ġpack": 7709,
      "Ġtogether": 7710,
      "è§ģè§£": 7711,
      "Ġparam": 7712,
      "è¿Ļä¸ªè¿ĩç¨ĭ": 7713,
      "Ġrate": 7714,
      "Ġevent": 7715,
      "æĽ¼": 7716,
      "éĹ®çŃĶ": 7717,
      "çļĦåı¥åŃĲ": 7718,
      "Ġet": 7719,
      "å¦ĤåĲĮ": 7720,
      "Ġhead": 7721,
      "ç§ĳæĬĢåĪĽæĸ°": 7722,
      "ĠÃĹ": 7723,
      "ä¸İä»ĸäºº": 7724,
      "èį¯çī©çłĶåıĳ": 7725,
      "ĠSp": 7726,
      "ses": 7727,
      "åºĦ": 7728,
      "member": 7729,
      "åĲĦåľ°": 7730,
      "éĻª": 7731,
      "ç¬Ķè®°": 7732,
      "ä¸Ĭä¼ł": 7733,
      "çŁ¿çī©è´¨": 7734,
      "versed": 7735,
      "åį«æĺŁ": 7736,
      "æł¹æį®æĤ¨çļĦ": 7737,
      "äººåľ¨": 7738,
      "çĽ®çļĦæĺ¯": 7739,
      "è½¬ç§»": 7740,
      "sert": 7741,
      "ys": 7742,
      "å®ļæľŁæ£ĢæŁ¥": 7743,
      "ãĤ¹": 7744,
      "çĶ¨æ°´": 7745,
      "è¾¨": 7746,
      "çļĦçľĭ": 7747,
      "å¡«åħħ": 7748,
      "ä¸įç¡®å®ļæĢ§": 7749,
      "nc": 7750,
      "Ġplace": 7751,
      "---\\": 7752,
      "ason": 7753,
      "èĲĿåįľ": 7754,
      "è¿ĻäºĽæĬĢæľ¯": 7755,
      "ä¼łè¯´": 7756,
      "èģļç±»": 7757,
      "Ðº": 7758,
      "åºĶçĶ¨åľºæĻ¯": 7759,
      "æĦıå¤ĸ": 7760,
      "rain": 7761,
      "å®īéĿĻ": 7762,
      "Ġrece": 7763,
      "ĠÐ¸": 7764,
      "ä»ģ": 7765,
      "Ġmaximum": 7766,
      "inary": 7767,
      "åĢºåĪ¸": 7768,
      "way": 7769,
      "åŃ©åŃĲçļĦ": 7770,
      "ä»¥æ»¡è¶³": 7771,
      "çļĦç©ºéĹ´": 7772,
      "å¤ªç©ºæİ¢ç´¢": 7773,
      "çļĦæ®µèĲ½": 7774,
      "ç§ĳæĬĢåıĳå±ķ": 7775,
      "nå°Ĩ": 7776,
      "çİ°åľº": 7777,
      "åĭĴ": 7778,
      "Ġgrow": 7779,
      "æĶ¿åºľåĴĮ": 7780,
      "éĩıåĴĮ": 7781,
      "èĤīç±»": 7782,
      "å»ºè®®åĲĹ": 7783,
      "ãģĻãĤĭ": 7784,
      "æĽ¾ç»ı": 7785,
      "Can": 7786,
      "Ġbusiness": 7787,
      "è¿Ľè¡ĮäºĨ": 7788,
      "çļĦæľīæķĪ": 7789,
      "ï¼Į\\\\(": 7790,
      "çĶ»éĿ¢": 7791,
      "ilar": 7792,
      "æ²»çĲĨ": 7793,
      "ĠJSON": 7794,
      "æķĮ": 7795,
      "è¿Ļæ¬¾": 7796,
      "?'}]": 7797,
      "å®¶åĽŃ": 7798,
      "æĦıæĢĿ": 7799,
      "åĮ»åŃ¦å½±åĥı": 7800,
      "æ©ŁåĻ¨": 7801,
      "åŃĶ": 7802,
      "çĦ¶åĲİå°Ĩ": 7803,
      "Ġseries": 7804,
      "æįķæįī": 7805,
      "å¤®": 7806,
      "ä¸ºæĤ¨æıĲä¾Ľ": 7807,
      "åĳĺå·¥çļĦ": 7808,
      "æİ¢è®¨äºĨ": 7809,
      "çļĦæĶ¿çŃĸ": 7810,
      "èĩªçĦ¶çļĦ": 7811,
      "Ġmanage": 7812,
      "ä¾ĽåºĶåķĨ": 7813,
      "ystems": 7814,
      "åľĭ": 7815,
      "ste": 7816,
      "Ġsim": 7817,
      "æĴŀ": 7818,
      "ä¹ĺä»¥": 7819,
      "éĥ½åı¯ä»¥": 7820,
      "nresult": 7821,
      "è¯·è¾ĵåħ¥": 7822,
      "æ¡ĥ": 7823,
      "inese": 7824,
      "ertainly": 7825,
      "35": 7826,
      "çļĦé¢ĨåŁŁ": 7827,
      "\".": 7828,
      "APP": 7829,
      "Ġaddress": 7830,
      "åħ±é¸£": 7831,
      "å²Ĺä½į": 7832,
      "Ġexist": 7833,
      "var": 7834,
      "æĲºå¸¦": 7835,
      "book": 7836,
      "å¸®åĬ©çĶ¨æĪ·": 7837,
      "Ġdevelopment": 7838,
      "ç½©": 7839,
      "ging": 7840,
      "é»ĳèī²": 7841,
      "nE": 7842,
      "å±ķçİ°åĩº": 7843,
      "åı¯èĥ½åŃĺåľ¨": 7844,
      "æĪĺæĸĹ": 7845,
      "ä»¥åħį": 7846,
      "Ġaccur": 7847,
      "æ¸¬": 7848,
      "æ½ľåľ¨çļĦ": 7849,
      "ways": 7850,
      "å®¶æĹı": 7851,
      "ç®ĢçŁŃ": 7852,
      "çĳŀ": 7853,
      "ç®Ĺæ³ķçļĦ": 7854,
      "æĺ¯ä¸į": 7855,
      "æ³¢éĤ£": 7856,
      "Certainly": 7857,
      "çº¦ä¸º": 7858,
      "Ġå»ºç«ĭ": 7859,
      "ä¸Ģåľº": 7860,
      "å¤©çĦ¶": 7861,
      "çĶ¨æĪ·çķĮéĿ¢": 7862,
      "çĦ¶åĲİä½¿çĶ¨": 7863,
      "åŃĲåĴĮ": 7864,
      "åº¦è¿ĩ": 7865,
      "åĸ·": 7866,
      "èĢĮå¼Ĥ": 7867,
      "ception": 7868,
      "æ´Ĵ": 7869,
      "çļĦæ³¨æĦı": 7870,
      "æ³¢éĤ£å¥ĳ": 7871,
      "å¯¼èĩ´çļĦ": 7872,
      "çļĦæī§è¡Į": 7873,
      "éĶĻè¯¯ä¿¡æģ¯": 7874,
      "ç»´åº¦": 7875,
      "table": 7876,
      "é¦Ļæ°Ķ": 7877,
      "æĪ·å¤ĸæ´»åĬ¨": 7878,
      "åĴĮçİ¯å¢ĥ": 7879,
      "æĢª": 7880,
      "æİ¥çĿĢ": 7881,
      "æķ°æį®ä¸Ń": 7882,
      "å®ĥæĺ¯": 7883,
      "è§Ĥå¿µ": 7884,
      "éĿ¢ç²ī": 7885,
      "Ġside": 7886,
      "2023": 7887,
      "DF": 7888,
      "çĲĥåĳĺ": 7889,
      "chie": 7890,
      "Ġpie": 7891,
      "åıĸåĩº": 7892,
      "\");\\": 7893,
      "dius": 7894,
      "èħº": 7895,
      "åľ¨çº¿è¯¾ç¨ĭ": 7896,
      "æ°ıåº¦": 7897,
      "é»ĳæļĹ": 7898,
      "curity": 7899,
      "åı«åģļ": 7900,
      "çļĦè´¨éĩı": 7901,
      "uation": 7902,
      "vest": 7903,
      "Red": 7904,
      "å²©": 7905,
      "Ġpandas": 7906,
      "Ġblock": 7907,
      "'ve": 7908,
      "au": 7909,
      "çļĦåĲįåŃĹ": 7910,
      "rong": 7911,
      "æĵ¦": 7912,
      "åħ³éĶ®çĤ¹": 7913,
      "IS": 7914,
      "æī§": 7915,
      "alculate": 7916,
      "çĸ¾çĹħçļĦ": 7917,
      "åī©ä½Ļ": 7918,
      "æĤ¨åľ¨": 7919,
      "é£İéĻ©ç®¡çĲĨ": 7920,
      "åĴĮå®ŀè·µ": 7921,
      "éģ¿åħįåľ¨": 7922,
      "å¾Į": 7923,
      "çļĦæ²»çĸĹæĸ¹æ¡Ī": 7924,
      "æķ°ç»Ħä¸Ń": 7925,
      "è¯¯å·®": 7926,
      "dule": 7927,
      "çĶŁçī©å¤ļæł·æĢ§": 7928,
      "Ġdue": 7929,
      "Ġ!=": 7930,
      "ention": 7931,
      "åĽ¢éĺŁåįıä½ľ": 7932,
      "çļĦæµĭ": 7933,
      "Ġke": 7934,
      "train": 7935,
      "æĬĳéĥģ": 7936,
      "è¿Ļæĺ¯ä¸Ģç§į": 7937,
      "æĥľ": 7938,
      "oney": 7939,
      "éŁµ": 7940,
      "éĥ½åľ¨": 7941,
      "ĠAlibaba": 7942,
      "ëĬ": 7943,
      "ault": 7944,
      "å¤ĩçĶ¨": 7945,
      "åģĩè®¾æĪĳä»¬": 7946,
      "mes": 7947,
      "çº§åĪ«": 7948,
      "åįıåĬ©": 7949,
      "éĢļéģİ": 7950,
      "æİ¥åıĹä¸Ģä¸ª": 7951,
      "å¦ĤæŀľéľĢè¦ģ": 7952,
      "less": 7953,
      "çļĦå¤§": 7954,
      "çļĦå½¢å¼ı": 7955,
      "ç¦»å¼Ģ": 7956,
      "body": 7957,
      "Ġaround": 7958,
      "$\\": 7959,
      "éī": 7960,
      "çŃīå¤ļ": 7961,
      "æĳĨ": 7962,
      "æ¹¿åº¦": 7963,
      "çļĦçľĭæ³ķ": 7964,
      "Ġå®ļä¹ī": 7965,
      "erature": 7966,
      "æıĲé«ĺæķĪçİĩ": 7967,
      "è®¤è¯ĨåĪ°": 7968,
      ":**": 7969,
      "åįģåĪĨ": 7970,
      "çļĦåĪĹè¡¨": 7971,
      ");": 7972,
      "æł¹æį®ä¸ªäºº": 7973,
      "Ġoccur": 7974,
      "ox": 7975,
      "å¤ĦçĲĨåĻ¨": 7976,
      "åħ¥æīĭ": 7977,
      "ä¸ªäººæĪĲéķ¿": 7978,
      "ä¹Ĳè§Ĥ": 7979,
      "Ġmet": 7980,
      "Ġorgan": 7981,
      "çļĦæķ°åŃĹ": 7982,
      "Ġheight": 7983,
      "çĽĹ": 7984,
      "å¹´ä»½": 7985,
      "æĸĲæ³¢éĤ£å¥ĳ": 7986,
      "çİĩåĴĮ": 7987,
      "è¯¸": 7988,
      "éĢīæĭ©åĲĪéĢĤ": 7989,
      "Ġexec": 7990,
      "æľĢå¥½çļĦ": 7991,
      "èİ«": 7992,
      "çļĦè®¡ç®Ĺ": 7993,
      "åı¯ä»¥çĶ¨": 7994,
      "æĶ¯åĩº": 7995,
      "ç¦ıåĪ©": 7996,
      "ä¸Ģæľ¬": 7997,
      "ç¤ºä¾ĭä»£çłģ": 7998,
      "èĢĢ": 7999,
      "è§£åĨ³è¿Ļä¸ªéĹ®é¢ĺ": 8000,
      "è¡£çī©": 8001,
      "ĠåĪĽå»ºä¸Ģä¸ª": 8002,
      "ĽçĽ¾": 8003,
      "äºĨå¯¹": 8004,
      "åĽŀé¡¾": 8005,
      "çĪ±çļĦ": 8006,
      "æĺİç¡®çļĦ": 8007,
      "AM": 8008,
      "ãĤĬ": 8009,
      "nipp": 8010,
      "åºĶè¯¥å¦Ĥä½ķ": 8011,
      "fig": 8012,
      "sol": 8013,
      "å§ĭç»Ī": 8014,
      "æĢ§åĪ«æŃ§è§Ĩ": 8015,
      "å¤ł": 8016,
      "è¿Ļæĺ¯åĽłä¸º": 8017,
      "ä»¥ä¿ĿæĮģ": 8018,
      "product": 8019,
      "ĠSince": 8020,
      "åģ¥åº·éĹ®é¢ĺ": 8021,
      "çĦ¶åĲİåľ¨": 8022,
      "èģļä¼ļ": 8023,
      "ä»¥å®ŀçİ°": 8024,
      "Ġown": 8025,
      "åĽŀå¤į": 8026,
      "Ġnote": 8027,
      "æģ¶æĦı": 8028,
      "ä½ľä¸ļ": 8029,
      "Ġlevel": 8030,
      "},": 8031,
      "é£İåħī": 8032,
      "åīįç«¯": 8033,
      "å°±ä¸ļæľºä¼ļ": 8034,
      "åĨ¬åŃ£": 8035,
      "å·¥èµĦ": 8036,
      "ç©¿è¶Ĭ": 8037,
      "ran": 8038,
      "æĮĩæķ°": 8039,
      "åĭ¤": 8040,
      "æĶ¾æĿ¾èº«å¿ĥ": 8041,
      "åĿĬ": 8042,
      "æĶ¾å¼ĥ": 8043,
      "æĶ¹åıĺäºĨ": 8044,
      "å·¥åħ·åĴĮ": 8045,
      "ä¸Ģé¡¹": 8046,
      "item": 8047,
      "âĢĿãĢĤ'},": 8048,
      "Ġteam": 8049,
      "Ġfam": 8050,
      "ought": 8051,
      "ä¸»åĬ¨": 8052,
      "èĩªçĦ¶çİ¯å¢ĥ": 8053,
      "ç»ĻæĪĳä¸Ģä¸ª": 8054,
      "alary": 8055,
      "ä¼ļæľī": 8056,
      "æĭĶ": 8057,
      "æĸĩæľ¬ä¸Ń": 8058,
      "æŁ±": 8059,
      "ilities": 8060,
      "ç¢ĳ": 8061,
      "éĩĳèŀįæľºæŀĦ": 8062,
      "èª¿": 8063,
      "Ġhuman": 8064,
      "è¿Ļä¸ªåĩ½æķ°": 8065,
      "çİ»": 8066,
      "è´¢å¯Į": 8067,
      "ĠExample": 8068,
      "ĠAs": 8069,
      "Ġweight": 8070,
      "æĢ§èĥ½åĴĮ": 8071,
      "kes": 8072,
      "æĻ¶": 8073,
      "å°ıéķĩ": 8074,
      "Ġexact": 8075,
      "ä¼ģä¸ļçļĦ": 8076,
      "èµĶ": 8077,
      "å®ĥä¼ļ": 8078,
      "ocus": 8079,
      "ä¹Ŀ": 8080,
      "çĥĺ": 8081,
      "æĬĽ": 8082,
      "èĻ¾": 8083,
      "flow": 8084,
      "çªĹåı£": 8085,
      "Ġconditions": 8086,
      "ĠHTML": 8087,
      "å½¢æĢģ": 8088,
      "CH": 8089,
      "map": 8090,
      "Ġadditional": 8091,
      "ä¸įåĲĮç±»åŀĭçļĦ": 8092,
      "script": 8093,
      "Ġener": 8094,
      "næł¹æį®": 8095,
      "åĲ¸å¼ķåĬĽ": 8096,
      "çİ°åľ¨è¯·ä½ł": 8097,
      "Ġneg": 8098,
      "éĹ»åĲį": 8099,
      "ç¿»çĤĴ": 8100,
      "$.": 8101,
      "Ġide": 8102,
      "Ġappe": 8103,
      "Ġsuggest": 8104,
      "æī¾åĪ°äºĨ": 8105,
      "æĺ¯åĲ¦éľĢè¦ģ": 8106,
      "ĠOutput": 8107,
      "Ġ</": 8108,
      "åĨ·åį´": 8109,
      "é¥±": 8110,
      "å¹³åı°ä¸Ĭ": 8111,
      "ilo": 8112,
      "Ġold": 8113,
      "çļĦæİ¥": 8114,
      "æĺ¯åĽłä¸º": 8115,
      "èĭ¥": 8116,
      "ĠLet": 8117,
      "æĸ°æĬĢæľ¯": 8118,
      "Ġservices": 8119,
      "Ġsnipp": 8120,
      "ãĢĭï¼Į": 8121,
      "ä¿ĿæĮģèī¯å¥½çļĦ": 8122,
      "AIç³»ç»Ł": 8123,
      "owever": 8124,
      "Time": 8125,
      "å±ĤéĿ¢": 8126,
      "Ġge": 8127,
      "Ġanother": 8128,
      "åĽ¾ä¹¦é¦Ĩ": 8129,
      "Element": 8130,
      "åı¯ä»¥éĢļè¿ĩåĪĨæŀĲ": 8131,
      "Ġvalid": 8132,
      "nå¦ĤæŀľæĤ¨": 8133,
      "åĴĮäººç±»": 8134,
      "Ġbuil": 8135,
      "åĩºä¸Ģä¸ª": 8136,
      "ç§¯æŀģåıĤä¸İ": 8137,
      "çĶŁæĪĲä¸Ģç¯ĩ": 8138,
      "ä¸Ģçīĩ": 8139,
      "çļĦæĦıè§ģ": 8140,
      "ç¶ĵ": 8141,
      "ä¼Ł": 8142,
      "Ġstudents": 8143,
      "çĶµåĬĽ": 8144,
      "ĠShe": 8145,
      "å¥¶éħª": 8146,
      "ĠãĢĬ": 8147,
      "atform": 8148,
      "ä¸¢å¤±": 8149,
      "éī´": 8150,
      "48": 8151,
      "oose": 8152,
      "æ¸©é¦¨": 8153,
      "ken": 8154,
      "Ġclear": 8155,
      "Ġresults": 8156,
      "å·¥ä½ľåĴĮ": 8157,
      "2021": 8158,
      "Ġitems": 8159,
      "Ġdivi": 8160,
      "Ġsingle": 8161,
      "Ġstatic": 8162,
      "å¯ĵ": 8163,
      "åı·çłģ": 8164,
      "äºĮè¿ĽåĪ¶": 8165,
      "ç¨³å®ļæĢ§åĴĮ": 8166,
      "æĿ¥èİ·åıĸ": 8167,
      "åĢ¾åĲĳäºİ": 8168,
      "Ad": 8169,
      "åĬĽäºİ": 8170,
      "æ¸¸æĪıçļĦ": 8171,
      "ä¼ĳéĹ²": 8172,
      "nM": 8173,
      "çļĦåı¯èĥ½æĢ§": 8174,
      "ä¸Ģä¸ªéĹ®é¢ĺ": 8175,
      "æµħ": 8176,
      "ç¾İè§Ĥ": 8177,
      "åĮĸçŁ³": 8178,
      "æĤ¨åı¯ä»¥ä½¿çĶ¨": 8179,
      "cer": 8180,
      "åĲĦä¸ªé¢ĨåŁŁ": 8181,
      "ä¸´åºĬ": 8182,
      "çļĦä¾ĭåŃĲ": 8183,
      "å¾ŀ": 8184,
      "å¯¹å¾ħ": 8185,
      "çļĦåĩĨç¡®æĢ§åĴĮ": 8186,
      "æĿ¥çļĦ": 8187,
      "æĪĳæĥ³è¦ģ": 8188,
      "Ġservice": 8189,
      "æŃ£åĪĻè¡¨è¾¾å¼ı": 8190,
      "è®¡æķ°": 8191,
      "è¿Ļå¯¹äºİ": 8192,
      "omet": 8193,
      "åĪ¶æĪĲ": 8194,
      "æ¡¶": 8195,
      "åĨ³çŃĸæłĳ": 8196,
      "ared": 8197,
      "æľ¬è´¨": 8198,
      "è´¦åı·": 8199,
      "Ġdatabase": 8200,
      "ç¢³æİĴæĶ¾": 8201,
      "æ°´åĴĮ": 8202,
      "èķ´": 8203,
      "ä¸ºä¸»": 8204,
      "Ġlibrary": 8205,
      "å®ļçĲĨ": 8206,
      "éľĢè¦ģæĪĳä»¬": 8207,
      "åĪ¶éĢłä¸ļ": 8208,
      "æ´»åĬĽ": 8209,
      "æ¨¡ä»¿": 8210,
      "Flow": 8211,
      "èº«ä½ĵçļĦ": 8212,
      "æĺİæĻº": 8213,
      "å¹¶æīĵåį°": 8214,
      "ä¸įéĢĤ": 8215,
      "TF": 8216,
      "nSELECT": 8217,
      "æĬ¹": 8218,
      "Ġpract": 8219,
      "Ġsit": 8220,
      "ä»ĸåľ¨": 8221,
      "nHowever": 8222,
      "Ġsoftware": 8223,
      "é£İæł¼åĴĮ": 8224,
      "çģ«æĺŁ": 8225,
      "æĭ¥åłµ": 8226,
      "urther": 8227,
      "èįīèİĵ": 8228,
      "ior": 8229,
      "label": 8230,
      "èħĬ": 8231,
      "æľīæ°§è¿ĲåĬ¨": 8232,
      "æŀģå¤§åľ°": 8233,
      "åĪĽå»ºäºĨä¸Ģä¸ª": 8234,
      "åĴĮå°Ĭéĩį": 8235,
      "),\\": 8236,
      "];\\": 8237,
      "åħļ": 8238,
      "å¦Ĥæŀľä½łåĸľæ¬¢": 8239,
      "åįļå®¢": 8240,
      "å¤ĦçĲĨåĴĮ": 8241,
      "Ġmaint": 8242,
      "Ġmath": 8243,
      "åľ¨å®ŀéĻħ": 8244,
      "agra": 8245,
      "è¡Ģæ¶²": 8246,
      "çĵ£": 8247,
      "alind": 8248,
      "èĩ³åħ³éĩįè¦ģçļĦ": 8249,
      "Ġdictionary": 8250,
      "Ġbit": 8251,
      "äººç¾¤": 8252,
      "ä¸ĢæĿ¯": 8253,
      "å¹½é»ĺ": 8254,
      "DNA": 8255,
      "æĪĸèĢħä½¿çĶ¨": 8256,
      "æĹģ": 8257,
      "å¯¼èĩ´äºĨ": 8258,
      "çİ©åħ·": 8259,
      "ransform": 8260,
      "\\'\\": 8261,
      "çļĦè§Ĵèī²": 8262,
      "Ġfloat": 8263,
      "udio": 8264,
      "çļĦæĦıæĢĿ": 8265,
      "join": 8266,
      "çļĦæıĲåįĩ": 8267,
      "XX": 8268,
      "çļĦè¯Ŀé¢ĺ": 8269,
      "è¿ĩæķı": 8270,
      "åŃ¦ä¹łç¼ĸç¨ĭ": 8271,
      "å¯ĨéĴ¥": 8272,
      "äººå·¥æĻºèĥ½çļĦåºĶçĶ¨": 8273,
      "åĽ½å®¶çļĦ": 8274,
      "Ġachie": 8275,
      "point": 8276,
      "çľŁæŃ£çļĦ": 8277,
      "çĽĲåĴĮ": 8278,
      "ëĬĶ": 8279,
      "æ¸ħæĸ°": 8280,
      "ç§įæĹıæŃ§è§Ĩ": 8281,
      "çİ°éĩĳ": 8282,
      "Ġnamed": 8283,
      "æįŁåĿı": 8284,
      "requency": 8285,
      "çļĦæŃĮæĽ²": 8286,
      "Ġbeh": 8287,
      "äººå·¥æĻºèĥ½åľ¨åĮ»çĸĹ": 8288,
      "æ²īæµ¸": 8289,
      "Ð½Ð¸": 8290,
      "åħ½": 8291,
      "man": 8292,
      "åı¯ä»¥åĪ©çĶ¨": 8293,
      "çļĦçħ": 8294,
      "26": 8295,
      "mbda": 8296,
      "næĪĳä»¬": 8297,
      "åĲįåı«": 8298,
      "ä¸İäººç±»": 8299,
      "å°ĬéĩįåĴĮ": 8300,
      "Ġsearch": 8301,
      "ç¨ĭåº¦ä¸Ĭ": 8302,
      "æľĢå°ıåĢ¼": 8303,
      "ï¼ļ\"": 8304,
      "ç»ĻæĤ¨": 8305,
      "ES": 8306,
      "Ġcli": 8307,
      "æĽ´å¥½åľ°çĲĨè§£åĴĮ": 8308,
      "Ġthose": 8309,
      "çļĦçľ¼": 8310,
      "æĤ¨æĥ³è¦ģ": 8311,
      "åħ¨éĿ¢çļĦ": 8312,
      "umns": 8313,
      "ä¸Ńåįİ": 8314,
      "èĩ´åĬĽäºİ": 8315,
      "åħ´è¶£çĪ±å¥½": 8316,
      "èĩªåĬ¨é©¾é©¶æ±½è½¦": 8317,
      "å¯Įæľī": 8318,
      "å®Ŀè´µ": 8319,
      "æĦīæĤ¦": 8320,
      "èĻķ": 8321,
      "Ġprobability": 8322,
      "éļ¾é¢ĺ": 8323,
      "åľ°éĿ¢": 8324,
      "æ¤ħ": 8325,
      "Ġgeneral": 8326,
      "0000": 8327,
      "ä»¥èİ·å¾Ĺ": 8328,
      "å½±åĵįåĪ°": 8329,
      "='": 8330,
      "Ġcult": 8331,
      "æ±º": 8332,
      "ĠApp": 8333,
      "å¯»æ±Ĥå¸®åĬ©": 8334,
      "CPU": 8335,
      "åľ¨éĩĳèŀį": 8336,
      "å¼Ģå±ķ": 8337,
      "æİ¨åĬ¨äºĨ": 8338,
      "Ġmach": 8339,
      "èĥ¡èĲĿåįľ": 8340,
      "è±ª": 8341,
      "èĩªçĦ¶çķĮ": 8342,
      "å·¥ä½ľä¸Ń": 8343,
      "Ġnumpy": 8344,
      "atural": 8345,
      "Ġusers": 8346,
      "æĭįæĳĦ": 8347,
      "åıĳçĶµ": 8348,
      "åĴĮæľºåĻ¨åŃ¦ä¹ł": 8349,
      "MySQL": 8350,
      "27": 8351,
      "ech": 8352,
      "å¦Ĥæŀľæľī": 8353,
      "Sh": 8354,
      "åĴĮæĶ¹è¿Ľ": 8355,
      "è®¾è®¡çļĦ": 8356,
      "ĠAr": 8357,
      "rop": 8358,
      "èĥ¶": 8359,
      "Ġindic": 8360,
      "alf": 8361,
      "å¹³éĿĻ": 8362,
      "next": 8363,
      "æŃ£æĸ¹": 8364,
      "åıĳåĩº": 8365,
      "åı¯ä»¥ä½ľä¸º": 8366,
      "ä¹Į": 8367,
      "å±ķè§Ī": 8368,
      "è¯Ńè¨Ģæ¨¡åŀĭ": 8369,
      "åĴĮæµĭè¯ķ": 8370,
      "type": 8371,
      "Ġphysi": 8372,
      "ä¼ļæł¹æį®": 8373,
      "èĤ¯": 8374,
      "ç¼Ŀ": 8375,
      "Ġsever": 8376,
      "åıįè½¬": 8377,
      "æĿ¥å¸®åĬ©": 8378,
      "çĽĳçĿ£åŃ¦ä¹ł": 8379,
      "Ġvol": 8380,
      "xim": 8381,
      "Ġ--": 8382,
      "æķĻæİĪ": 8383,
      "å¸Ĥåľºè¶ĭåĬ¿": 8384,
      "néĢļè¿ĩä»¥ä¸ĬæŃ¥éª¤": 8385,
      "]`": 8386,
      "è°ĥæĸĻ": 8387,
      "ç»´ä¿®": 8388,
      "çļĦçĪ±æĥħ": 8389,
      "ä¸ºçĶ¨æĪ·": 8390,
      "åĲĪè§ĦæĢ§": 8391,
      "go": 8392,
      "æ³ī": 8393,
      "åĪĹä¸¾": 8394,
      "å¸¦æľī": 8395,
      "Ġsnippet": 8396,
      "é¬": 8397,
      "ited": 8398,
      "çļĦæ¢¦æĥ³": 8399,
      "ĠçŃī": 8400,
      "å¤±ä¸ļ": 8401,
      "å©´": 8402,
      "çļĦæł¼å¼ı": 8403,
      "æİ¨è¿Ľ": 8404,
      "Ġmeas": 8405,
      "æ¢ħ": 8406,
      "äº§çĶŁäºĨæ·±è¿ľçļĦå½±åĵį": 8407,
      "è®¾å¤ĩåĴĮ": 8408,
      "äº«çĶ¨": 8409,
      "ä¸Ģåı¥": 8410,
      "æĽ´å¤§çļĦ": 8411,
      "åĬłæ·±": 8412,
      "ç´łè´¨": 8413,
      "èĥ½æºĲæ¶ĪèĢĹ": 8414,
      "çĴĥ": 8415,
      "ouse": 8416,
      "çĶµåŃĲåķĨåĬ¡": 8417,
      "Ġreplace": 8418,
      "è¿Ļåı¯ä»¥éĢļè¿ĩ": 8419,
      "uplic": 8420,
      "çļĦç¬ĳ": 8421,
      "ç»ıæµİåıĳå±ķ": 8422,
      "é¡¹çĽ®ç®¡çĲĨ": 8423,
      "çĶŁçī©åŃ¦": 8424,
      "Ġenergy": 8425,
      "ä¸ĭåįĪ": 8426,
      "utton": 8427,
      "åıįå°Ħ": 8428,
      "place": 8429,
      "æ°´åĮĸåĲĪçī©": 8430,
      "å¾Īé«ĺåħ´": 8431,
      "Ġnecess": 8432,
      "ç½Ĺé©¬": 8433,
      "ĠåĪ¶å®ļ": 8434,
      "æ·±åİļ": 8435,
      "éĢĤéĩıçļĦ": 8436,
      "ey": 8437,
      "mis": 8438,
      "Ġaut": 8439,
      "æĽ´æĺ¯": 8440,
      "çĽ®æłĩæĺ¯": 8441,
      "theta": 8442,
      "Ġsw": 8443,
      "åĽ½å®¶åĴĮ": 8444,
      "æĦıå¤§åĪ©éĿ¢": 8445,
      "Ġmathemat": 8446,
      "Ġfactors": 8447,
      "æĺ¯ä¸Ģé¡¹": 8448,
      "è¾¾æĪĲ": 8449,
      "å¦ĩ": 8450,
      "å¸¸çĶ¨": 8451,
      "ç©·": 8452,
      "å¼ĤæŃ¥": 8453,
      "çļĦæİ§": 8454,
      "ales": 8455,
      "Ġdev": 8456,
      "çļĦè§£åĨ³æĸ¹æ¡Ī": 8457,
      "èĢĮä¸į": 8458,
      "ground": 8459,
      "æĳĦå½±": 8460,
      "Ġ'ãĢĬ": 8461,
      "æĿ¥åĩıå°ĳ": 8462,
      "ä»İèĢĮå®ŀçİ°": 8463,
      "æĸ°åŀĭ": 8464,
      "ç¢ºä¿Ŀ": 8465,
      "å¾ħéģĩ": 8466,
      "ories": 8467,
      "åİ¨æĪ¿": 8468,
      "ÙĬ": 8469,
      "Ġeas": 8470,
      "çļĦæįŁ": 8471,
      "è¾Ĳ": 8472,
      "åľ¨è¿Ļ": 8473,
      "éĽ¶åĶ®": 8474,
      "å¡«åĨĻ": 8475,
      "ç¥ŀç§ĺçļĦ": 8476,
      "ĠList": 8477,
      "æĸĳ": 8478,
      "ä¸»è¦ģçĶ¨äºİ": 8479,
      "åĳ¨éķ¿": 8480,
      "å®ĮæĪĲåĲİ": 8481,
      "çļĦéľĢæ±ĤåĴĮ": 8482,
      "åĽ½åĨħ": 8483,
      "çļĦæ·±åĪ»": 8484,
      "Ġtransl": 8485,
      "çļĦæłĩåĩĨ": 8486,
      "Ġcomplete": 8487,
      "ounds": 8488,
      "néľĢè¦ģæ³¨æĦıçļĦæĺ¯": 8489,
      "çļĦè¯¦ç»Ĩä¿¡æģ¯": 8490,
      "Ġallows": 8491,
      "å¹´è½»äºº": 8492,
      "Ġdifference": 8493,
      "uthor": 8494,
      "ait": 8495,
      "ï¼ģ\\": 8496,
      "æĭĴ": 8497,
      "çĩķ": 8498,
      "åį±æľº": 8499,
      "Ġpair": 8500,
      "çļĦçĭ¬çī¹": 8501,
      "ĠæıĲä¾Ľ": 8502,
      "Ġru": 8503,
      "çļĦç¾İä¸½": 8504,
      "è®¡ç®Ĺåĩº": 8505,
      "è³ª": 8506,
      "å¸¸å¸¸": 8507,
      "èĥ½å¤Łåľ¨": 8508,
      "æ¡Īä»¶": 8509,
      "Ġrespect": 8510,
      "PC": 8511,
      "åľ°äº§": 8512,
      "é£İæļ´": 8513,
      "ç°": 8514,
      "è¾ĥé«ĺçļĦ": 8515,
      "Ġchild": 8516,
      "éĶĻè¯¯çļĦ": 8517,
      "æ¼Ķåĳĺ": 8518,
      "ç®ĢåİĨ": 8519,
      "mot": 8520,
      "åİĨåı²ä¸Ĭ": 8521,
      "åĨĻä¸Ģç¯ĩåħ³äºİçİ¯ä¿ĿçļĦæĸĩç«ł": 8522,
      "ĠæĻºèĥ½": 8523,
      "æ¯ıå¹´": 8524,
      "æľªæĿ¥åıĳå±ķ": 8525,
      "ä»ĭç»įäºĨ": 8526,
      "ä»¥ä¸ĭåĳ½ä»¤": 8527,
      "è¾Ĳå°Ħ": 8528,
      "Ġusage": 8529,
      "sity": 8530,
      "Ġspeed": 8531,
      "Ġsince": 8532,
      "çļĦæ±¡æŁĵ": 8533,
      "lanation": 8534,
      "æµĵéĥģ": 8535,
      "ä»£æĽ¿": 8536,
      "ged": 8537,
      "åĬŁèĥ½åĴĮ": 8538,
      "çŃīçº§": 8539,
      "ä½ľä¸ºåıĤæķ°": 8540,
      "è½¨éģĵ": 8541,
      "æĹłäººæľº": 8542,
      "ĠæĬĢæľ¯": 8543,
      "æĮģç»ŃåŃ¦ä¹ł": 8544,
      "è¶ħè¶Ĭ": 8545,
      "Ġcondition": 8546,
      "çļĦæİ¢ç´¢": 8547,
      "à¸²": 8548,
      "ç§ĳæĬĢçļĦåıĳå±ķ": 8549,
      "mar": 8550,
      "ĠØ": 8551,
      "çļĦçī¹å¾ģ": 8552,
      "ä¸Ńå¤®": 8553,
      "æŀĦéĢł": 8554,
      "éħįæĸĻ": 8555,
      "ç²¾åº¦": 8556,
      "inally": 8557,
      "çļĦæ¤į": 8558,
      "ç»§æī¿": 8559,
      "nå°ı": 8560,
      "æ°§æ°Ķ": 8561,
      "æ¼ıæ´ŀ": 8562,
      "éĹ´çļĦ": 8563,
      "å¯º": 8564,
      "tr": 8565,
      "è¯Ńå¢ĥ": 8566,
      "è¢«è®¤ä¸ºæĺ¯": 8567,
      "Ġmid": 8568,
      "èµł": 8569,
      "ä»£åħ¥": 8570,
      "åĮ»çĶŁæĪĸ": 8571,
      "è¿Ľè¡ĮåĪĨç±»": 8572,
      "èı²": 8573,
      "æľĢä½³å®ŀè·µ": 8574,
      "ç§ĳåŃ¦çłĶç©¶": 8575,
      "ade": 8576,
      "çļĦåĲįç§°": 8577,
      "Ġ36": 8578,
      "åī¯ä½ľçĶ¨": 8579,
      "è¿½æº¯": 8580,
      "éģĭ": 8581,
      "ç¨İæĶ¶": 8582,
      "%ï¼Į": 8583,
      "ä»¥å¸®åĬ©": 8584,
      "çĶµåĻ¨": 8585,
      "Ġrelations": 8586,
      "ĠåĬłåħ¥": 8587,
      "inder": 8588,
      "åĬ£": 8589,
      "æĽ´å¿«åľ°": 8590,
      "æıĲé«ĺçĶŁäº§": 8591,
      "åħĥç»Ħ": 8592,
      "root": 8593,
      "äº¤æµģåĴĮ": 8594,
      "hed": 8595,
      "ä¾¿äºİ": 8596,
      "çļĦç®Ĺæ³ķ": 8597,
      "ä¸īç§į": 8598,
      "300": 8599,
      "äººå¿ĥ": 8600,
      "åı¯ä»¥æĺ¾èĳĹ": 8601,
      "Ġgreater": 8602,
      "æĦĪ": 8603,
      "with": 8604,
      "`:": 8605,
      "ĠÄ": 8606,
      "åŃĺåĤ¨åľ¨": 8607,
      "æľīçĽĬ": 8608,
      "ä¼Ĺå¤ļ": 8609,
      "çİ»çĴĥ": 8610,
      "ç«ĭæĸ¹": 8611,
      "çıįæĥľ": 8612,
      "é³": 8613,
      "ensorFlow": 8614,
      "çļĦç¿": 8615,
      "ĠTherefore": 8616,
      "åĮºåĪĨ": 8617,
      "åĴĮæ³ķå¾ĭ": 8618,
      "ä½Ĩå®ĥä»¬": 8619,
      "å¤ļç§įåĽłç´ł": 8620,
      "æł¹æį®ä½łçļĦ": 8621,
      "function": 8622,
      "å°½å¿«": 8623,
      "æĹ¶éĹ´çļĦ": 8624,
      "è¯¥åĩ½æķ°": 8625,
      "Ġtask": 8626,
      "ĠString": 8627,
      "Ð²": 8628,
      "è°¨æħİ": 8629,
      "ä»ĸåĢĳ": 8630,
      "Ġfurther": 8631,
      "æĥĳ": 8632,
      "å®¹éĩı": 8633,
      "æłĩæ³¨": 8634,
      "éĩĮçļĦ": 8635,
      "sic": 8636,
      "Ġä»£çłģ": 8637,
      "åıĳéŁ³": 8638,
      "çļĦæĸĩä»¶": 8639,
      "è«ĭ": 8640,
      "action": 8641,
      "åı¯ä»¥éĩĩåıĸ": 8642,
      "è£Ļ": 8643,
      "ç³ĸå°¿": 8644,
      "èĥ½æıĲä¾Ľ": 8645,
      "æĸĩåĮĸä¸Ń": 8646,
      "soft": 8647,
      "'\\": 8648,
      "æĺ¯åĲ¦åŃĺåľ¨": 8649,
      "Ġhandle": 8650,
      "\">": 8651,
      "ãĥ¼ãĥ": 8652,
      "ç³ĸå°¿çĹħ": 8653,
      "Ġinterpre": 8654,
      "æ¬ºè¯Ī": 8655,
      "Ġnames": 8656,
      "æĺ¯ä¸ĢåĲį": 8657,
      "ä½Ĩå®ĥ": 8658,
      "èŃĺ": 8659,
      "ä»»åĬ¡çļĦ": 8660,
      "current": 8661,
      "éĤ£ä¸ª": 8662,
      "èĤł": 8663,
      "æĽ²çº¿": 8664,
      "ä¸ŃçļĦä¸Ģä¸ª": 8665,
      "Ġæ³¨æĦıäºĭé¡¹": 8666,
      "ĠComp": 8667,
      "åĵ¦": 8668,
      "åĩºçīĪ": 8669,
      "Ġassum": 8670,
      "CO": 8671,
      "å®ĩå®ĻçļĦ": 8672,
      "HP": 8673,
      "æ¢ģ": 8674,
      "çļĦæİ§åĪ¶": 8675,
      "eng": 8676,
      "ç¡®ä¿Ŀæķ°æį®": 8677,
      "çļĦå®īåħ¨æĢ§": 8678,
      "èĶ¬èıľåĴĮ": 8679,
      "èĩĤ": 8680,
      "æ¼Ĥ": 8681,
      "åĴĮå°ı": 8682,
      "åĩºçĶŁ": 8683,
      "æ¢¯åº¦": 8684,
      "vate": 8685,
      "æ¯Ķçī¹": 8686,
      "Ġ17": 8687,
      "å¸¦æĿ¥æĽ´å¤ļçļĦ": 8688,
      "ä½łèĥ½åĳĬè¯īæĪĳ": 8689,
      "ribute": 8690,
      "çļĦæ·±åº¦": 8691,
      "Total": 8692,
      "ĠCheck": 8693,
      "åĩ¡": 8694,
      "åŀĭåı·": 8695,
      "æıŃç¤º": 8696,
      "å¦ĤæŀľæĪĳä»¬": 8697,
      "çļĦçł´": 8698,
      "29": 8699,
      "Ġrole": 8700,
      "æľīçĶ¨": 8701,
      "å¯¹çİ¯å¢ĥçļĦå½±åĵį": 8702,
      "åķĨå®¶": 8703,
      "äºļé©¬": 8704,
      "Ġavail": 8705,
      "Ġ1000": 8706,
      "Ġho": 8707,
      "è±¡å¾ģçĿĢ": 8708,
      "OT": 8709,
      "å°ĳæķ°": 8710,
      "equ": 8711,
      "],\\": 8712,
      "arm": 8713,
      "è®¾è®¡å¸Ī": 8714,
      "Ġlimit": 8715,
      "æĮ¯": 8716,
      "bject": 8717,
      "å¯¹æĤ¨æľīæīĢå¸®åĬ©": 8718,
      "åı¯èĥ½æĮĩçļĦæĺ¯": 8719,
      "ä¹ŁåºĶè¯¥": 8720,
      "ç·´": 8721,
      "åĲİç«¯": 8722,
      "ç»Ŀå¯¹": 8723,
      "æ²»çĸĹæĸ¹æ¡Ī": 8724,
      "ç¼Ģ": 8725,
      "ä»¥ä¸ĭæĺ¯ä¸Ģä¸ªç®ĢåįķçļĦ": 8726,
      "è§£è¯»": 8727,
      "æ¯ıä¸ªäººéĥ½åºĶè¯¥": 8728,
      "DE": 8729,
      "ĠChinese": 8730,
      "sequence": 8731,
      "just": 8732,
      "ä½łæĺ¯": 8733,
      "åĲ¯åıĳ": 8734,
      "Ġå¯¹äºİ": 8735,
      "äº§çĶŁå½±åĵį": 8736,
      "çļĦçİ¯å¢ĥä¸Ń": 8737,
      "å¥ĩæķ°": 8738,
      "assword": 8739,
      "æīĭåĬ¨": 8740,
      "çĽ´çº¿": 8741,
      "Ġfour": 8742,
      "çļĦçĮ": 8743,
      "é»ĳèĥ¡æ¤Ĵ": 8744,
      "æĸ¹æ³ķåĴĮ": 8745,
      "Ġquick": 8746,
      "ties": 8747,
      "æĢĿè·¯": 8748,
      "ively": 8749,
      "è¡°": 8750,
      "Ġdirectly": 8751,
      "å¹²åĩĢ": 8752,
      "width": 8753,
      "çļĦåĴĮ": 8754,
      "etic": 8755,
      "èĬ±æľµ": 8756,
      "å±±èĦī": 8757,
      "ä¸Ģä»¶": 8758,
      "æĮģç»ŃçļĦ": 8759,
      "å®½åº¦": 8760,
      "åı¤èĢģçļĦ": 8761,
      "æİĴåĲį": 8762,
      "æĪ¿å±ĭ": 8763,
      "150": 8764,
      "åĩıå°ĳäºĨ": 8765,
      "å¸ĮèħĬ": 8766,
      "äºļæ´²": 8767,
      "è¿Ļåľ¨": 8768,
      "ÏĢ": 8769,
      "Ġsure": 8770,
      "æĪĳæ²¡æľī": 8771,
      "ä¹Łå¾Ī": 8772,
      "npublic": 8773,
      "ç¸": 8774,
      "çļĦæİĴæĶ¾": 8775,
      "Th": 8776,
      "åĲĮæĹ¶ä¹Łåı¯ä»¥": 8777,
      "è¾ĥå¤§": 8778,
      "Ġdivide": 8779,
      "é±¼ç±»": 8780,
      "éŁ©": 8781,
      "çļĦèĥĮæĻ¯": 8782,
      "åķĨåºĹ": 8783,
      "cat": 8784,
      "å§Ķ": 8785,
      "æĻĤéĸĵ": 8786,
      "ä»¥ä¸ĭæĺ¯æĪĳä¸ºæĤ¨": 8787,
      "åĳ½ä»¤è¡Į": 8788,
      "ç»Ļåĩºä¸Ģä¸ª": 8789,
      "éĿŀæ´²": 8790,
      "æİ¨å¯¼": 8791,
      "å°±åĥı": 8792,
      "lack": 8793,
      "çĩĥçĥ§": 8794,
      "è¿Ļç§įæĥħåĨµ": 8795,
      "é¼»": 8796,
      "uments": 8797,
      "å½ĵæĪĳä»¬": 8798,
      "Ġ\\\\[\\": 8799,
      "println": 8800,
      "åĳ½è¿Ĳ": 8801,
      "æĬ¤çĲĨ": 8802,
      "çĶŁæ´»ä¸ŃçļĦ": 8803,
      "output": 8804,
      "äºļé©¬éĢĬ": 8805,
      "å½¢å®¹": 8806,
      "Qu": 8807,
      "é£İéĻ©è¯Ħä¼°": 8808,
      "æĳĦæ°ıåº¦": 8809,
      "è¿Ļéĥ¨çĶµå½±": 8810,
      "nfunction": 8811,
      "åħ·ä½ĵæĥħåĨµ": 8812,
      "An": 8813,
      "çĪ¶æ¯į": 8814,
      "Ġimprove": 8815,
      "ç©Ĩ": 8816,
      "column": 8817,
      "æĿ¥è¿Ľè¡Į": 8818,
      "çļĦçħ§": 8819,
      "iod": 8820,
      "ä¸ĢåĪĩ": 8821,
      "def": 8822,
      "ä»¥èİ·åıĸ": 8823,
      "Ġversion": 8824,
      "æ¶µçĽĸäºĨ": 8825,
      "èģĬå¤©æľºåĻ¨äºº": 8826,
      "ond": 8827,
      "å½ĵæĹ¶": 8828,
      "ç»ĨèıĮ": 8829,
      "åıĻ": 8830,
      "è¥¿çıŃ": 8831,
      "II": 8832,
      "åĴĮåıįé¦Ī": 8833,
      "Ġsystems": 8834,
      "äº§çĶŁçļĦ": 8835,
      "æĪ¿åľ°äº§": 8836,
      "å¤įä¹ł": 8837,
      "åĴĮæī§è¡Į": 8838,
      "è¥¿çıŃçīĻ": 8839,
      "åľ¨æķĻèĤ²": 8840,
      "æ·ĩ": 8841,
      "mathb": 8842,
      "åı£åı·": 8843,
      "íķĺ": 8844,
      "ãģĭ": 8845,
      "çļĦæĢģåº¦": 8846,
      "hello": 8847,
      "åĩĨå¤ĩå¥½": 8848,
      "éĹ´æİ¥": 8849,
      "åĮ»çĸĹæľįåĬ¡": 8850,
      "ëĭ¤": 8851,
      "åľ¨ä¸ĢäºĽ": 8852,
      "ä»£çłģçļĦ": 8853,
      "cies": 8854,
      "éĶĻè¯¯å¤ĦçĲĨ": 8855,
      "è¿Ļæł·æĪĳæīįèĥ½": 8856,
      "ä¸ĸçķĮä¸Ń": 8857,
      "cip": 8858,
      "ho": 8859,
      "rase": 8860,
      "æľīåħ¶ä»ĸ": 8861,
      "ign": 8862,
      "Ġclar": 8863,
      "èĺĳ": 8864,
      "Value": 8865,
      "é«ĺéĢŁ": 8866,
      "è¸ı": 8867,
      "Ġimage": 8868,
      "åħģè®¸çĶ¨æĪ·": 8869,
      "å®ı": 8870,
      "AL": 8871,
      "è¯Ĺäºº": 8872,
      "ç»³": 8873,
      "åĵº": 8874,
      "näººå·¥æĻºèĥ½": 8875,
      "ç³»çµ±": 8876,
      "Ġ80": 8877,
      "é¢Ħè®¡": 8878,
      "æ¶ĪåĮĸ": 8879,
      "è¡¨ç¤ºä¸º": 8880,
      "æĿ¥åŃĺåĤ¨": 8881,
      "Ġoperations": 8882,
      "èĨ¨": 8883,
      "å½ĵåīįçļĦ": 8884,
      "ä¸įéĶĻçļĦéĢīæĭ©": 8885,
      "åįĵ": 8886,
      "è¯Ńè¨ĢçļĦ": 8887,
      "éŁ¿": 8888,
      "æľºåĻ¨åŃ¦ä¹łåĴĮ": 8889,
      "åĲĦåĽ½": 8890,
      "è®²è¿°äºĨ": 8891,
      "æ¥ļ": 8892,
      "åį±å®³": 8893,
      "å«©": 8894,
      "æĪĲç«ĭ": 8895,
      "èħ°": 8896,
      "åĨ°æ·ĩ": 8897,
      "æıĲä¾ĽäºĨä¸Ģä¸ª": 8898,
      "graph": 8899,
      "æ³¥": 8900,
      "æĶ¹éĿ©": 8901,
      "Ġdesigned": 8902,
      "åħ¶ä¸ŃåĮħåĲ«": 8903,
      "å®ĿèĹı": 8904,
      "net": 8905,
      "è¯ģä¹¦": 8906,
      "çļĦæİ¨èįĲ": 8907,
      "Po": 8908,
      "ä»£çĲĨ": 8909,
      "DO": 8910,
      "ä»Ĭå¤©çļĦ": 8911,
      "aw": 8912,
      "ills": 8913,
      "çļĦæĻºæħ§": 8914,
      "èĺĳèıĩ": 8915,
      "Ġcour": 8916,
      "äº§æĿĥ": 8917,
      "åĨ°æ·ĩæ·ĭ": 8918,
      "å¹¶éĢļè¿ĩ": 8919,
      "é»ŀ": 8920,
      "éļĶç¦»": 8921,
      "çļĦç±»åŀĭ": 8922,
      "Ġfocus": 8923,
      "Ġaccurate": 8924,
      "å°ĸ": 8925,
      "æµ·é²ľ": 8926,
      "Ġpay": 8927,
      "æµ´": 8928,
      "Ġred": 8929,
      "itionally": 8930,
      "ĠBY": 8931,
      "åĽ´ç»ķ": 8932,
      "éĥ½éľĢè¦ģ": 8933,
      "çĥĤ": 8934,
      "ç¼ºå¤±åĢ¼": 8935,
      "å±ĢéĻĲ": 8936,
      "ä»Ļ": 8937,
      "è¿ĻäºĽåĽłç´ł": 8938,
      "æ°´çļĦ": 8939,
      "Ġhav": 8940,
      "æĽ¿æį¢ä¸º": 8941,
      "cir": 8942,
      "éĵ¾è¡¨": 8943,
      "ä¸įä»ħåľ¨": 8944,
      "Ġfra": 8945,
      "ä¹Łä¸º": 8946,
      "åħµ": 8947,
      "è§Ĩè§īæķĪæŀľ": 8948,
      "æĪĳæĺ¯": 8949,
      "cale": 8950,
      "æ´ª": 8951,
      "èīºæľ¯åĵģ": 8952,
      "color": 8953,
      "ndata": 8954,
      "ä¸ĸçķĮçļĦ": 8955,
      "çļĦæł¹": 8956,
      "Ġelif": 8957,
      "æ¯ıä¸Ģæ¬¡": 8958,
      "çļĦæ¶Īè´¹": 8959,
      "resents": 8960,
      "åĲ¬ä¼Ĺ": 8961,
      "Ġaccount": 8962,
      "Ġissues": 8963,
      "å°ıåĿĹ": 8964,
      "è¿ĺä¼ļ": 8965,
      "æľĪçĲĥ": 8966,
      "Class": 8967,
      "Ġposition": 8968,
      "çĽ¸åĬł": 8969,
      "Ġcall": 8970,
      "Ġperformance": 8971,
      "éĢļè¿ĩä½¿çĶ¨": 8972,
      "åĴĮçłĶç©¶": 8973,
      "ä»ĸä»¬åľ¨": 8974,
      "æĺ¾å¾Ĺ": 8975,
      "Ġfiles": 8976,
      "åħ³éĶ®åŃĹ": 8977,
      "ä¸ŃåĽ½åı¤ä»£": 8978,
      "é¡¹çĽ®ä¸Ń": 8979,
      "éĨĩ": 8980,
      "ä¸Ģéĥ¨åĪĨ": 8981,
      "Ġç¡®å®ļ": 8982,
      "è¡¨è¿°": 8983,
      "æ£Ģç´¢": 8984,
      "ĠFROM": 8985,
      "çļĦæ½ľåľ¨": 8986,
      "ä¹ĲåĻ¨": 8987,
      "çĻĮçĹĩ": 8988,
      "ilter": 8989,
      "Open": 8990,
      "ç³»ç»ŁåĴĮ": 8991,
      "åıĹä¼¤": 8992,
      "eting": 8993,
      "Ġdf": 8994,
      "è°·æŃĮ": 8995,
      "éĽ»": 8996,
      "lie": 8997,
      "Ġrelationship": 8998,
      "æľĢä¼ĺ": 8999,
      "Ġè¿Ļä¸ª": 9000,
      "çļĦæĮģ": 9001,
      "çŃīå¼ı": 9002,
      "æĭ¼åĨĻ": 9003,
      "nä½¿çĶ¨": 9004,
      "éĢļçĶ¨": 9005,
      "æķĻç»ĥ": 9006,
      "Ġmethods": 9007,
      "å¼ºåĮĸåŃ¦ä¹ł": 9008,
      "åĽŀåĪ°": 9009,
      "è®¸åı¯": 9010,
      "af": 9011,
      "ä½łåı¯ä»¥å°Ŀè¯ķ": 9012,
      "åºĶæĢ¥": 9013,
      "å¸®æĤ¨": 9014,
      "æĥħåĴĮ": 9015,
      "çļĦçĹĩ": 9016,
      "æĪĳå¾Īä¹ĲæĦı": 9017,
      "Ġlove": 9018,
      "ĠCan": 9019,
      "åĪ¶å®ļä¸Ģä¸ª": 9020,
      "èĵĦ": 9021,
      "èĿ¶": 9022,
      "nint": 9023,
      "oup": 9024,
      "maz": 9025,
      "çļĦæ½ľåĬĽ": 9026,
      "ä¸»è¦ģä½ĵçİ°åľ¨": 9027,
      "æĵį": 9028,
      "Ġways": 9029,
      "Here": 9030,
      "Ġfood": 9031,
      "æŃ»äº¡": 9032,
      "éĻĪè¿°": 9033,
      "çļĦéĥ¨åĪĨ": 9034,
      "å¾Ĺåĩº": 9035,
      "åĩĨç¡®çİĩ": 9036,
      "çļĦè¡Į": 9037,
      "ä¿ĿæĮģåĨ·éĿĻ": 9038,
      "Ġreco": 9039,
      "ä¸ĵä¸ļçŁ¥è¯Ĩ": 9040,
      "åħ´å¥ĭ": 9041,
      "ä¾£": 9042,
      "Ġmultiply": 9043,
      "Ġunderstanding": 9044,
      "åı¯ä»¥å¢ŀå¼º": 9045,
      "åºĻ": 9046,
      "æĢĸ": 9047,
      "Ġder": 9048,
      "Ġnow": 9049,
      "Ùħ": 9050,
      "ãĢĭ\\": 9051,
      "æĭĵå±ķ": 9052,
      "èĬ¬": 9053,
      "Ġdeci": 9054,
      "å¤§æķ°æį®åĪĨæŀĲ": 9055,
      "éĺĲ": 9056,
      "uture": 9057,
      "ä¼ĺéĽħ": 9058,
      "Ġodd": 9059,
      "èī¾èİī": 9060,
      "èĬĿå£«": 9061,
      "ä¸Ńæī¾åĪ°": 9062,
      "æĢİä¹ĪåĬŀ": 9063,
      "Ġhappy": 9064,
      "æķ°æį®æĹ¶": 9065,
      "Ġche": 9066,
      "æĮĳ": 9067,
      "ervice": 9068,
      "Ġç»ĵè®º": 9069,
      "ĠAnd": 9070,
      "åĭĥ": 9071,
      "Ġlower": 9072,
      "Ġmiles": 9073,
      "Ġlit": 9074,
      "Ġlocal": 9075,
      "çĤ¹åĴĮ": 9076,
      "å¤§éĩıçļĦæķ°æį®": 9077,
      "éĿ¢åĽ¢": 9078,
      "éĺ²æĬ¤": 9079,
      "ĠĠĠĠĠĠĠĠĠĠ": 9080,
      "ä¸»é¢ĺæĺ¯": 9081,
      "Ġquant": 9082,
      "ç¯®çĲĥ": 9083,
      "èī³": 9084,
      "èĨ¨èĥĢ": 9085,
      "æĪĳä»¬åı¯ä»¥ä»İ": 9086,
      "éŃĤ": 9087,
      "ä¸ĩçī©": 9088,
      "çļĦæķĻèĤ²": 9089,
      "è¿Ļéģĵ": 9090,
      "åįıåĲĮ": 9091,
      "é¦ĻæĸĻ": 9092,
      "ä¹ĺå®¢": 9093,
      "ä¸ªæľĪ": 9094,
      "ä¸įåıĺ": 9095,
      "éĺ¿éĩĮäºĳ": 9096,
      "?\\": 9097,
      "ERT": 9098,
      "å¿łè¯ļåº¦": 9099,
      "à¸²à¸": 9100,
      "image": 9101,
      "å¤ļæł·åĮĸ": 9102,
      "åĻªéŁ³": 9103,
      "éħµ": 9104,
      "çļĦçķĮ": 9105,
      "Ġfilter": 9106,
      "CP": 9107,
      "Ġæĸĩä»¶": 9108,
      "èħĶ": 9109,
      "å°ĨæĽ´åĬł": 9110,
      "Ġrele": 9111,
      "ä¼°è®¡": 9112,
      "Ġnums": 9113,
      "æĸĩåŃ¦ä½ľåĵģ": 9114,
      "ND": 9115,
      "çĶŁæľº": 9116,
      "è¯·å°Ĩ": 9117,
      "è§Ĩéĩİ": 9118,
      "è¿ĻäºĽæĸ¹æ³ķ": 9119,
      "æĺ¯ä¸Ģéĥ¨": 9120,
      "æĲħæĭĮåĿĩåĮĢ": 9121,
      "åĽłæŃ¤åľ¨": 9122,
      "éĻªä¼´": 9123,
      "å¦Ĥæŀľæĺ¯": 9124,
      "åĵºä¹³": 9125,
      "cording": 9126,
      "çĸĳéĹ®": 9127,
      "ĠWeb": 9128,
      "ĸæģ¯": 9129,
      "æº¢": 9130,
      "ä»¥ä¸ĭæĺ¯ä¸Ģç¯ĩåħ³äºİ": 9131,
      "çļĦè§Ĵåº¦": 9132,
      "å¥¶æ²¹": 9133,
      "Ġmaintain": 9134,
      "éĢļå¸¸çĶ±": 9135,
      "è¿ĩå¤ļ": 9136,
      "åľ°ä¸Ĭ": 9137,
      "etch": 9138,
      "æµĨ": 9139,
      "åħ·ä½ĵæĿ¥è¯´": 9140,
      "temp": 9141,
      "çļĦçĹĩçĬ¶": 9142,
      "erial": 9143,
      "çĶŁæĪĲåĻ¨": 9144,
      "fit": 9145,
      "çļĦå®ļä¹ī": 9146,
      "èĢĮéĹ»åĲį": 9147,
      "udo": 9148,
      "å®ŀçİ°äºĨ": 9149,
      "å¯¹ä½ł": 9150,
      "æĺłå°Ħ": 9151,
      "Ġtypes": 9152,
      "Ð¼": 9153,
      "æĪĳåĸľæ¬¢": 9154,
      "å¾ĴæŃ¥": 9155,
      "nä½Ĩæĺ¯": 9156,
      "å½±éŁ¿": 9157,
      "éħįéĢģ": 9158,
      "ç§įåŃĲ": 9159,
      "])": 9160,
      "nel": 9161,
      "Ġmoney": 9162,
      "ç®¡çĲĨç³»ç»Ł": 9163,
      "æŃ£ç¡®åľ°": 9164,
      "rypt": 9165,
      "ication": 9166,
      "å¯ĨåĪĩ": 9167,
      "è¡Įä¸ļä¸Ń": 9168,
      "éĿ¢éĥ¨": 9169,
      "æµ·è¾¹": 9170,
      "åĬªåĬĽåĴĮ": 9171,
      "icle": 9172,
      "è¯·æıĲåıĸ": 9173,
      "è°ĥçłĶ": 9174,
      "éľĢè¦ģéĢļè¿ĩ": 9175,
      "èĬĤçĽ®": 9176,
      "èĲ¥åħ»ç´ł": 9177,
      "é½¿": 9178,
      "UI": 9179,
      "ç©ºä¸Ń": 9180,
      "çĺ¤": 9181,
      "AIåı¯ä»¥": 9182,
      "èĩªçĦ¶è¯Ńè¨Ģå¤ĦçĲĨæĬĢæľ¯": 9183,
      "åĬłåħ¥ä¸ĢäºĽ": 9184,
      "çªģçł´": 9185,
      "æįŁå®³": 9186,
      "çļĦéĢŁåº¦": 9187,
      "Ġnegative": 9188,
      "tern": 9189,
      "Ġmatch": 9190,
      "å®ĥèĥ½å¤Ł": 9191,
      "ç³»æķ°": 9192,
      "GitHub": 9193,
      "è®²ä¸Ģä¸ª": 9194,
      "éĺŁåĪĹ": 9195,
      "çļĦçĭĹ": 9196,
      "Ġvector": 9197,
      "alindrome": 9198,
      "åĪĨæĪĲ": 9199,
      "çĶ¨äºİåŃĺåĤ¨": 9200,
      "æıĴä»¶": 9201,
      "ference": 9202,
      "çº¿ç´¢": 9203,
      "ä»İæĸĩç«łä¸ŃæıĲåıĸåĩº": 9204,
      "Ġair": 9205,
      "å¹¶éĿŀ": 9206,
      "çļĦæķĪçİĩ": 9207,
      "åİĨç¨ĭ": 9208,
      "è¾ĥå°ı": 9209,
      "æıĲåĩºäºĨ": 9210,
      "Comp": 9211,
      "å®ŀéĻħçļĦ": 9212,
      "å¿½çķ¥": 9213,
      "æİ¨èįĲçļĦ": 9214,
      "èĪªçıŃ": 9215,
      "æľīäºĽäºº": 9216,
      "Ġefficient": 9217,
      "å®¢æĪ·çļĦ": 9218,
      "Ġlook": 9219,
      "items": 9220,
      "æĸ¹å¼ıåĴĮ": 9221,
      "Ġbox": 9222,
      "Ġapplication": 9223,
      "çĶŁæĢģå¹³è¡¡": 9224,
      "Number": 9225,
      "è¯·ä¸ºæĪĳ": 9226,
      "ä¼ļåľ¨": 9227,
      "çļĦçł´åĿı": 9228,
      "æł¹æį®éľĢè¦ģ": 9229,
      "Ġdri": 9230,
      "Ġexpress": 9231,
      "ç±»ä¼¼äºİ": 9232,
      "è¢ĸ": 9233,
      "ä»¥åıĬåľ¨": 9234,
      "ç¿°": 9235,
      "bor": 9236,
      "**ï¼ļ`": 9237,
      "æĺĨ": 9238,
      "Ø§ÙĦ": 9239,
      "åı¹": 9240,
      "åĪĨéļĶ": 9241,
      "çħ§é¡¾": 9242,
      "æĪĲåĬŁåľ°": 9243,
      "Ġapplications": 9244,
      "çŃĸçķ¥åĴĮ": 9245,
      "æĺ¯ä¸ºäºĨ": 9246,
      "Ġalways": 9247,
      "ä¸¥æł¼çļĦ": 9248,
      "å¯Ħ": 9249,
      "ç»Ĩèħ»": 9250,
      "ĠÑģ": 9251,
      "æİ¨åĩº": 9252,
      "å£³": 9253,
      "éªĹ": 9254,
      "åĩıèĤ¥": 9255,
      "åľĨå½¢": 9256,
      "Ġfeatures": 9257,
      "å®Įæķ´æĢ§": 9258,
      "Ġscen": 9259,
      "Ġplatform": 9260,
      "éªĳèĩªè¡Įè½¦": 9261,
      "çİ¯å¢ĥä¸ĭ": 9262,
      "dig": 9263,
      "ä¿Ħ": 9264,
      "è´¢äº§": 9265,
      "æĮ«": 9266,
      "Android": 9267,
      "ough": 9268,
      "ä»¥ä¸ĭæĺ¯æĪĳ": 9269,
      "å¯¹ç§°": 9270,
      "iful": 9271,
      "31": 9272,
      "æĩĤ": 9273,
      "Ġsuccess": 9274,
      "æĺİäº®": 9275,
      "Ġstill": 9276,
      "æĢ»ä¹ĭ": 9277,
      "éĻ¤æŃ¤": 9278,
      "åľ¨è®¸å¤ļ": 9279,
      "çļĦåºĶçĶ¨åľºæĻ¯": 9280,
      "ä¸īè§Ĵå½¢çļĦ": 9281,
      "åĩĿèģļ": 9282,
      "çļĦæº": 9283,
      "aces": 9284,
      "åİĭåĬĽåĴĮçĦ¦èĻĳ": 9285,
      "ç¤ºä¾ĭä¸Ń": 9286,
      "cription": 9287,
      "param": 9288,
      "å®ŀçİ°çļĦ": 9289,
      "å®¢è§Ĥ": 9290,
      "usion": 9291,
      "Ġhy": 9292,
      "æĮĩéĴĪ": 9293,
      "åħ¬æ°ĳ": 9294,
      "ä¸ªäººéļĲç§ģ": 9295,
      "do": 9296,
      "åħ·ä½ĵéľĢæ±Ĥ": 9297,
      "èģĶåĲĪ": 9298,
      "çĤ¹æķ°": 9299,
      "å®¡æł¸": 9300,
      "Ġmix": 9301,
      "è´¨æķ°": 9302,
      "æŃ¥è¡Į": 9303,
      "çĶŁæĢģçİ¯å¢ĥ": 9304,
      "fect": 9305,
      "ä»£çłģçīĩæ®µ": 9306,
      "è£Ķ": 9307,
      "æ¼ł": 9308,
      "æİªæĸ½æĿ¥": 9309,
      "çĶŁåĳ½çļĦ": 9310,
      "False": 9311,
      "æľĢéĩįè¦ģçļĦ": 9312,
      "éĢĻåĢĭ": 9313,
      "year": 9314,
      "´æľĽ": 9315,
      "é¡¹çĽ®çļĦ": 9316,
      "èİ·å¾ĹäºĨ": 9317,
      "banana": 9318,
      "Ġå¥½çļĦ": 9319,
      "åħ±æľī": 9320,
      "ç§ĭå¤©çļĦ": 9321,
      "ee": 9322,
      "éĿ¢æĿ¡": 9323,
      "åĴĮé¢Ħæµĭ": 9324,
      "Ġcomputer": 9325,
      "èĢĥèĻĳä½¿çĶ¨": 9326,
      "çĽ®æłĩåıĹä¼Ĺ": 9327,
      "å¾ĹåĪĨ": 9328,
      "èħ¾": 9329,
      "CSV": 9330,
      "Ġcannot": 9331,
      "éĿŀå¸¸å¹¿æ³Ľ": 9332,
      "çļĦæµĭè¯ķ": 9333,
      "åĸľçĪ±": 9334,
      "Ġimpact": 9335,
      "ä½ıå®¿": 9336,
      "Ġkeep": 9337,
      "æłı": 9338,
      "å°ĳå¹´": 9339,
      "å¡ĳéĢł": 9340,
      "æĽ´å¤įæĿĤ": 9341,
      "ering": 9342,
      "åĢ¼å¾Ĺä¸Ģ": 9343,
      "Ġdivid": 9344,
      "autiful": 9345,
      "æľīä»·åĢ¼": 9346,
      "éĤĦ": 9347,
      "Ġexperience": 9348,
      "æĮĩç¤º": 9349,
      "çļĦæ¤įçī©": 9350,
      "æłĩè¯Ĩ": 9351,
      "cus": 9352,
      "éĻ¤æŃ¤ä¹ĭå¤ĸ": 9353,
      "åľ¨è®¾è®¡": 9354,
      "è½»æĿ¾åľ°": 9355,
      "åħĶåŃĲ": 9356,
      "é«ĺæ¸©": 9357,
      "çºªå¿µ": 9358,
      "lask": 9359,
      "ä½łå°Ĩ": 9360,
      "ç»©æķĪ": 9361,
      "nconsole": 9362,
      "Ġhard": 9363,
      "ç¬ĳè¯Ŀ": 9364,
      "åŃĲéĩĮ": 9365,
      "å»ºéĢł": 9366,
      "çļĦåĩºçİ°": 9367,
      "irt": 9368,
      "çŃīæĸ¹æ³ķ": 9369,
      "Ġ'```": 9370,
      "ç½ĳä¸Ĭ": 9371,
      "æĭĴç»Ŀ": 9372,
      "çĶ·åŃ©": 9373,
      ".ãĢĬ": 9374,
      "ĠGoogle": 9375,
      "arth": 9376,
      "Ġprovides": 9377,
      "èĻķçĲĨ": 9378,
      "ç¢³æ°´åĮĸåĲĪçī©": 9379,
[...]
